#pragma once
// Auto-generated TFLite model (11248 bytes)
const unsigned int model_data_len = 11248;
alignas(8) const unsigned char model_data[] = {
  0x20, 0x00, 0x00, 0x00, 0x54, 0x46, 0x4c, 0x33, 0x00, 0x00, 0x00, 0x00, 0x14, 0x00, 0x20, 0x00, 0x1c, 0x00, 0x18, 0x00, 0x14, 0x00, 0x10, 0x00, 0x0c, 0x00, 0x00, 0x00, 0x08, 0x00, 0x04, 0x00, 0x14, 0x00, 0x00, 0x00, 0x1c, 0x00, 0x00, 0x00, 0x98, 0x00, 0x00, 0x00, 0xf0, 0x00, 0x00, 0x00, 0xc4, 0x1a, 0x00, 0x00, 0xd4, 0x1a, 0x00, 0x00, 0x80, 0x2b, 0x00, 0x00, 0x03, 0x00, 0x00, 0x00, 0x01, 0x00, 0x00, 0x00, 0x10, 0x00, 0x00, 0x00, 0x00, 0x00, 0x0a, 0x00, 0x10, 0x00, 0x0c, 0x00, 0x08, 0x00, 0x04, 0x00, 0x0a, 0x00, 0x00, 0x00, 0x0c, 0x00, 0x00, 0x00, 0x1c, 0x00, 0x00, 0x00, 0x3c, 0x00, 0x00, 0x00, 0x0f, 0x00, 0x00, 0x00, 0x73, 0x65, 0x72, 0x76, 0x69, 0x6e, 0x67, 0x5f, 0x64, 0x65, 0x66, 0x61, 0x75, 0x6c, 0x74, 0x00, 0x01, 0x00, 0x00, 0x00, 0x04, 0x00, 0x00, 0x00, 0x90, 0xff, 0xff, 0xff, 0x0a, 0x00, 0x00, 0x00, 0x04, 0x00, 0x00, 0x00, 0x08, 0x00, 0x00, 0x00, 0x6f, 0x75, 0x74, 0x70, 0x75, 0x74, 0x5f, 0x30, 0x00, 0x00, 0x00, 0x00, 0x01, 0x00, 0x00, 0x00, 0x04, 0x00, 0x00, 0x00, 0x22, 0xe5, 0xff, 0xff, 0x04, 0x00, 0x00, 0x00, 0x0c, 0x00, 0x00, 0x00, 0x6b, 0x65, 0x72, 0x61, 0x73, 0x5f, 0x74, 0x65, 0x6e, 0x73, 0x6f, 0x72, 0x00, 0x00, 0x00, 0x00, 0x02, 0x00, 0x00, 0x00, 0x34, 0x00, 0x00, 0x00, 0x04, 0x00, 0x00, 0x00, 0xdc, 0xff, 0xff, 0xff, 0x0d, 0x00, 0x00, 0x00, 0x04, 0x00, 0x00, 0x00, 0x13, 0x00, 0x00, 0x00, 0x43, 0x4f, 0x4e, 0x56, 0x45, 0x52, 0x53, 0x49, 0x4f, 0x4e, 0x5f, 0x4d, 0x45, 0x54, 0x41, 0x44, 0x41, 0x54, 0x41, 0x00, 0x08, 0x00, 0x0c, 0x00, 0x08, 0x00, 0x04, 0x00, 0x08, 0x00, 0x00, 0x00, 0x0c, 0x00, 0x00, 0x00, 0x04, 0x00, 0x00, 0x00, 0x13, 0x00, 0x00, 0x00, 0x6d, 0x69, 0x6e, 0x5f, 0x72, 0x75, 0x6e, 0x74, 0x69, 0x6d, 0x65, 0x5f, 0x76, 0x65, 0x72, 0x73, 0x69, 0x6f, 0x6e, 0x00, 0x0e, 0x00, 0x00, 0x00, 0xd0, 0x19, 0x00, 0x00, 0xc8, 0x19, 0x00, 0x00, 0xa4, 0x19, 0x00, 0x00, 0xf4, 0x18, 0x00, 0x00, 0x64, 0x18, 0x00, 0x00, 0x54, 0x10, 0x00, 0x00, 0x44, 0x0f, 0x00, 0x00, 0xb4, 0x00, 0x00, 0x00, 0xac, 0x00, 0x00, 0x00, 0xa4, 0x00, 0x00, 0x00, 0x9c, 0x00, 0x00, 0x00, 0x94, 0x00, 0x00, 0x00, 0x74, 0x00, 0x00, 0x00, 0x04, 0x00, 0x00, 0x00, 0xd6, 0xe5, 0xff, 0xff, 0x04, 0x00, 0x00, 0x00, 0x60, 0x00, 0x00, 0x00, 0x0c, 0x00, 0x00, 0x00, 0x08, 0x00, 0x0e, 0x00, 0x08, 0x00, 0x04, 0x00, 0x08, 0x00, 0x00, 0x00, 0x10, 0x00, 0x00, 0x00, 0x28, 0x00, 0x00, 0x00, 0x00, 0x00, 0x06, 0x00, 0x08, 0x00, 0x04, 0x00, 0x06, 0x00, 0x00, 0x00, 0x04, 0x00, 0x00, 0x00, 0x01, 0x00, 0x00, 0x00, 0xeb, 0x03, 0x00, 0x00, 0x0c, 0x00, 0x18, 0x00, 0x14, 0x00, 0x10, 0x00, 0x0c, 0x00, 0x04, 0x00, 0x0c, 0x00, 0x00, 0x00, 0xbd, 0xf8, 0xff, 0x41, 0x57, 0x87, 0x4a, 0x46, 0x02, 0x00, 0x00, 0x00, 0x02, 0x00, 0x00, 0x00, 0x04, 0x00, 0x00, 0x00, 0x06, 0x00, 0x00, 0x00, 0x32, 0x2e, 0x32, 0x31, 0x2e, 0x30, 0x00, 0x00, 0x42, 0xe6, 0xff, 0xff, 0x04, 0x00, 0x00, 0x00, 0x10, 0x00, 0x00, 0x00, 0x31, 0x2e, 0x31, 0x34, 0x2e, 0x30, 0x00, 0x00, 0x00, 0x00, 0x00, 0x00, 0x00, 0x00, 0x00, 0x00, 0x2c, 0xe6, 0xff, 0xff, 0x30, 0xe6, 0xff, 0xff, 0x34, 0xe6, 0xff, 0xff, 0x38, 0xe6, 0xff, 0xff, 0x6e, 0xe6, 0xff, 0xff, 0x04, 0x00, 0x00, 0x00, 0x80, 0x0e, 0x00, 0x00, 0xe7, 0x5a, 0xfb, 0xd4, 0xe5, 0xe4, 0xdb, 0x2f, 0x84, 0xbf, 0xe8, 0xb3, 0xe9, 0xeb, 0x11, 0xdf, 0x08, 0xfb, 0x1b, 0x09, 0x21, 0x04, 0xd4, 0x20, 0x10, 0x0f, 0x07, 0x2e, 0xf0, 0xf1, 0x02, 0x17, 0x2b, 0xc9, 0xab, 0xf8, 0x15, 0x1c, 0xe6, 0xe0, 0x1b, 0x44, 0x89, 0xe4, 0x66, 0x0d, 0x03, 0x18, 0x51, 0x59, 0x5c, 0x3f, 0x7f, 0x1b, 0x33, 0xe8, 0xf9, 0xf3, 0x0d, 0x1c, 0xf3, 0xea, 0x1a, 0x0a, 0x13, 0x08, 0xed, 0xfa, 0xf4, 0x0e, 0x01, 0xe2, 0x11, 0xbe, 0xf7, 0x11, 0xf4, 0x01, 0xca, 0x00, 0x2d, 0xf5, 0xe9, 0xf6, 0xdc, 0xce, 0x19, 0x0f, 0x22, 0x1f, 0xfc, 0x17, 0xc8, 0xd7, 0xf5, 0x0a, 0xe9, 0x2d, 0xe0, 0x02, 0x0a, 0xf2, 0xf5, 0x05, 0x09, 0xea, 0x7f, 0xc3, 0xd6, 0x55, 0x97, 0x44, 0xe3, 0x04, 0xde, 0x0a, 0xff, 0xec, 0xed, 0x0c, 0x09, 0x19, 0x7f, 0x07, 0x17, 0x03, 0x2f, 0xf2, 0xf8, 0x13, 0x18, 0xf6, 0x03, 0xc8, 0x0a, 0x1e, 0x0c, 0x06, 0x10, 0xec, 0x10, 0xdc, 0x0a, 0x01, 0xde, 0xea, 0xfa, 0xed, 0x4a, 0x2e, 0xda, 0xfd, 0x08, 0xe6, 0x3a, 0xa5, 0xb5, 0xd6, 0xfb, 0xe1, 0xec, 0x58, 0x06, 0xe2, 0xdb, 0xe5, 0x12, 0xea, 0x1d, 0x57, 0xe4, 0x1f, 0x10, 0x2d, 0x25, 0xed, 0xf2, 0xfe, 0x06, 0x10, 0x05, 0xe3, 0x7f, 0xfa, 0x12, 0x0c, 0x04, 0x11, 0x24, 0xd9, 0xc7, 0xf6, 0xe9, 0xe5, 0xe6, 0xc7, 0xf9, 0x27, 0xf0, 0xcb, 0x12, 0x15, 0xe1, 0xe2, 0xe4, 0xb9, 0xf8, 0x13, 0xfe, 0x1f, 0xf7, 0xe0, 0x0b, 0xdb, 0x08, 0x2b, 0x13, 0x22, 0x2e, 0x35, 0xdb, 0xfd, 0x21, 0xdb, 0xbe, 0x1a, 0xe1, 0x8e, 0xf4, 0x06, 0x02, 0x16, 0x08, 0xeb, 0x04, 0xe1, 0x02, 0x05, 0x03, 0x07, 0x09, 0xe5, 0x03, 0x11, 0xf1, 0xdd, 0xf2, 0xff, 0xfd, 0x12, 0xfd, 0x06, 0xf3, 0xfa, 0x02, 0x0e, 0x19, 0xa1, 0x06, 0x0b, 0xf8, 0x09, 0xe5, 0x1c, 0x7f, 0x28, 0x08, 0x04, 0x14, 0x03, 0xe7, 0x1a, 0x0a, 0x11, 0xed, 0xf8, 0xe8, 0x00, 0x00, 0xd8, 0xdb, 0x27, 0x1e, 0x47, 0xef, 0x9e, 0xf3, 0xe7, 0xff, 0xfe, 0x02, 0x01, 0x06, 0x01, 0xfe, 0x03, 0x0e, 0x0a, 0x0b, 0xfc, 0xff, 0xfc, 0xf6, 0xfd, 0xf6, 0x01, 0x09, 0x08, 0x0d, 0xfa, 0xeb, 0xf8, 0xfd, 0x07, 0x03, 0xfc, 0x00, 0xf8, 0xfa, 0x02, 0x09, 0x0a, 0x81, 0x06, 0x0a, 0xfb, 0x01, 0x0b, 0xf1, 0x0c, 0x0b, 0xf8, 0xf6, 0xf1, 0xf7, 0x0f, 0x01, 0x11, 0x02, 0x03, 0xfb, 0xfc, 0xea, 0xe1, 0x13, 0xfe, 0xfa, 0xfa, 0x08, 0x27, 0x20, 0x11, 0x01, 0xc2, 0xf4, 0x7f, 0xfa, 0xec, 0xcf, 0xec, 0xd5, 0xe6, 0x16, 0xda, 0xf4, 0xea, 0x13, 0x0c, 0xf7, 0x10, 0xef, 0x20, 0x41, 0x17, 0xeb, 0xed, 0xe6, 0x22, 0x0e, 0x44, 0x65, 0x2c, 0xe4, 0x15, 0x0a, 0x40, 0x06, 0x02, 0x45, 0xf1, 0xe2, 0x04, 0x1c, 0x1c, 0xe0, 0x1c, 0x39, 0x29, 0x40, 0x4c, 0xfc, 0x00, 0x17, 0xf5, 0xf7, 0x13, 0xee, 0x07, 0xf7, 0xe4, 0xdf, 0x16, 0xfe, 0xe9, 0xfb, 0xcc, 0x7f, 0xd1, 0xf3, 0xe7, 0x0a, 0xf8, 0x08, 0x04, 0x09, 0x1c, 0xe4, 0xfd, 0x0f, 0xf9, 0xb4, 0xfa, 0xf8, 0xdd, 0x42, 0x25, 0xe9, 0xf7, 0xfd, 0x0b, 0x1c, 0xd4, 0x0b, 0xca, 0x29, 0x18, 0x11, 0xf7, 0x0b, 0x25, 0x09, 0xcb, 0x02, 0xea, 0x09, 0x1b, 0x24, 0x0e, 0x58, 0x58, 0x05, 0x08, 0x15, 0x16, 0xc3, 0x25, 0x2d, 0xe3, 0xde, 0xf3, 0xc5, 0xdc, 0x10, 0xfc, 0xb9, 0x22, 0x04, 0x7f, 0x08, 0xe6, 0xe4, 0x20, 0x25, 0x0e, 0xea, 0x10, 0xff, 0xf1, 0xf8, 0xf6, 0xd1, 0xfa, 0x10, 0x3b, 0x14, 0xdd, 0xd7, 0x3c, 0xbe, 0x15, 0xb1, 0x1d, 0x0d, 0xbe, 0x09, 0x29, 0xe4, 0xeb, 0x1e, 0xf3, 0x48, 0xec, 0xb8, 0xde, 0xa0, 0x40, 0xb6, 0xfa, 0x0f, 0xde, 0xe8, 0xde, 0xfe, 0xfd, 0xff, 0xf6, 0x0f, 0x0d, 0xe7, 0xe4, 0x64, 0xf7, 0x21, 0x08, 0x0d, 0x10, 0xef, 0xe1, 0x34, 0xfa, 0xef, 0x1e, 0xfc, 0xea, 0xf0, 0xf9, 0xf5, 0xe4, 0x02, 0x03, 0x27, 0x0a, 0xfd, 0x1b, 0x24, 0xe0, 0x01, 0x0c, 0xe2, 0xf4, 0x42, 0x1c, 0x10, 0xda, 0x15, 0x09, 0x03, 0xe5, 0x0e, 0xfd, 0x09, 0xfa, 0x1d, 0xfe, 0xa4, 0x81, 0x0b, 0xf5, 0xff, 0x0a, 0x08, 0xf8, 0x11, 0xf0, 0x08, 0xf3, 0x0a, 0xeb, 0xea, 0xff, 0xe7, 0x25, 0x02, 0xf3, 0xda, 0xeb, 0xe8, 0xf6, 0xe8, 0x00, 0xe9, 0xdc, 0x2a, 0x14, 0x2b, 0xb0, 0x2c, 0xef, 0xea, 0x03, 0xf9, 0xf6, 0xd9, 0xfd, 0xea, 0x04, 0x25, 0x03, 0x1e, 0x1f, 0x0a, 0xea, 0x23, 0xf4, 0xf4, 0xe7, 0x0f, 0xed, 0xfc, 0x1e, 0x7f, 0x1b, 0x2e, 0x1b, 0xf7, 0xec, 0xd7, 0x0d, 0xe3, 0x13, 0xf7, 0xfd, 0x13, 0x19, 0xd0, 0xf4, 0x11, 0xf4, 0x33, 0x3a, 0x1e, 0xdb, 0x21, 0x0a, 0x07, 0x0a, 0x4a, 0x06, 0xf4, 0xd3, 0xfa, 0x42, 0x06, 0x81, 0xf8, 0xb9, 0xdc, 0x18, 0xc5, 0xe6, 0x05, 0xef, 0x0e, 0x26, 0xe8, 0x2f, 0xfb, 0xac, 0x95, 0xa5, 0x01, 0xd7, 0xda, 0xd5, 0x24, 0xd8, 0xe9, 0xf1, 0x10, 0xed, 0x72, 0x35, 0x38, 0x24, 0x16, 0xce, 0x3c, 0xd5, 0xb6, 0x13, 0xf5, 0xf1, 0xde, 0xd4, 0x86, 0xed, 0xf9, 0x1d, 0x20, 0x1d, 0x1e, 0xf3, 0x4c, 0x35, 0xf8, 0xe9, 0xd0, 0xdb, 0xed, 0x1b, 0xff, 0x37, 0x3f, 0xf1, 0xdc, 0xd0, 0x1c, 0xf5, 0xf6, 0x08, 0x20, 0x31, 0x2d, 0x2e, 0x81, 0xbc, 0x3d, 0x7d, 0x15, 0x37, 0x38, 0x0b, 0x11, 0xde, 0x05, 0xf8, 0xc8, 0x81, 0x1d, 0x9c, 0xe9, 0xdc, 0x07, 0xcb, 0xf5, 0x03, 0x0d, 0x01, 0x06, 0xe5, 0xec, 0x09, 0xe5, 0x0f, 0x09, 0x23, 0xef, 0x05, 0xf2, 0xfc, 0xfc, 0x0c, 0xf9, 0xfb, 0x0c, 0x20, 0x1c, 0x10, 0xe8, 0x09, 0xf2, 0xe6, 0xe5, 0x03, 0x20, 0xd3, 0xcf, 0x06, 0x02, 0xff, 0xc7, 0xdf, 0x1d, 0xee, 0xfe, 0x2b, 0x16, 0xe0, 0xc9, 0x0b, 0xeb, 0xc6, 0xe9, 0x12, 0x7f, 0x4a, 0xd8, 0xcd, 0xe1, 0xe2, 0x07, 0x10, 0xe9, 0xf6, 0xe9, 0x09, 0x10, 0x16, 0xe1, 0xef, 0xf5, 0xe6, 0xe5, 0xef, 0xef, 0x09, 0x04, 0x24, 0x24, 0x1a, 0x04, 0xfb, 0xff, 0x06, 0xff, 0xec, 0x0d, 0x06, 0x16, 0xfa, 0xc8, 0xf1, 0xfd, 0xc7, 0xef, 0x19, 0xd9, 0x11, 0x18, 0x07, 0x10, 0xf2, 0x03, 0x17, 0x10, 0xfb, 0xd4, 0xdc, 0xfc, 0xea, 0xf7, 0x05, 0x40, 0x81, 0x04, 0x25, 0xf6, 0xde, 0x00, 0x24, 0x00, 0xf4, 0xf4, 0xf4, 0xf0, 0x00, 0x09, 0xf9, 0xfd, 0x03, 0x08, 0x00, 0x0c, 0x01, 0x07, 0x02, 0x0e, 0xf2, 0x0a, 0x0b, 0x08, 0x01, 0xf9, 0xf5, 0xf6, 0x18, 0xfa, 0xf8, 0x03, 0x03, 0x17, 0x15, 0xf7, 0xe9, 0xdb, 0x00, 0x10, 0x0e, 0x0d, 0xfb, 0xec, 0x01, 0x11, 0xfc, 0xe8, 0xf7, 0xfe, 0x02, 0x14, 0x14, 0x05, 0xfa, 0x7f, 0x05, 0xf8, 0x0b, 0x19, 0x15, 0x14, 0x19, 0x15, 0x1d, 0xff, 0xff, 0xb1, 0x27, 0xca, 0x0f, 0x43, 0xf7, 0x26, 0x38, 0x37, 0x3d, 0xec, 0x0e, 0x0a, 0xc8, 0xf9, 0x2c, 0xfb, 0x16, 0x1d, 0xc2, 0x0d, 0xc8, 0xc7, 0x16, 0x3a, 0xda, 0x81, 0x77, 0x16, 0x5c, 0xfa, 0x90, 0x4a, 0xa7, 0x15, 0x24, 0xdb, 0xf1, 0x61, 0x00, 0x46, 0xfd, 0xba, 0xc7, 0x1c, 0x14, 0x23, 0x70, 0x1b, 0xf8, 0xdd, 0xfa, 0x0b, 0x13, 0x03, 0xee, 0x12, 0xf8, 0xc0, 0x5e, 0x4e, 0x5f, 0xe7, 0xfa, 0x0b, 0xe3, 0xeb, 0x32, 0xfc, 0x27, 0xf4, 0x36, 0xf4, 0xfa, 0x0b, 0xda, 0xff, 0xff, 0x38, 0x0f, 0x09, 0x05, 0x1a, 0x05, 0x39, 0x81, 0x38, 0xf1, 0x1c, 0xd7, 0x1c, 0x06, 0x07, 0xdb, 0x15, 0x3e, 0xf5, 0xb6, 0x2a, 0xcc, 0xc4, 0xf7, 0xdf, 0xda, 0x0a, 0x0d, 0xe9, 0x16, 0xd6, 0x1d, 0xd2, 0x26, 0xf1, 0x22, 0x11, 0xce, 0x18, 0xf3, 0x0c, 0x2e, 0xce, 0x50, 0xde, 0xcb, 0xff, 0x34, 0x3a, 0x18, 0x34, 0x0a, 0xf3, 0x3c, 0xe5, 0x07, 0xe8, 0x7f, 0x29, 0x53, 0xf1, 0x30, 0x1f, 0xc5, 0xee, 0xd9, 0xf3, 0x0d, 0x40, 0xa4, 0x21, 0x18, 0xc6, 0xc9, 0x0e, 0x56, 0x87, 0xdc, 0x0f, 0x8a, 0x23, 0x45, 0xf1, 0x16, 0xf3, 0xe0, 0xe0, 0xfa, 0x0d, 0xf7, 0x15, 0x22, 0x0c, 0xf9, 0x59, 0xf5, 0x14, 0xf5, 0xdf, 0x09, 0x32, 0x72, 0xf2, 0xf1, 0x1f, 0xc4, 0xfa, 0xe2, 0xde, 0x29, 0x01, 0xfa, 0xcc, 0x01, 0xef, 0xca, 0x0f, 0xa3, 0x19, 0x22, 0x11, 0x51, 0x05, 0xb6, 0x52, 0x06, 0xd1, 0xae, 0x33, 0xf1, 0xc0, 0xf4, 0x38, 0xff, 0xf8, 0x5c, 0x1a, 0xd2, 0xc6, 0xcc, 0xaf, 0x14, 0xa7, 0x81, 0x14, 0xd0, 0xd0, 0x36, 0x52, 0x08, 0x20, 0x0c, 0xf1, 0x0d, 0xec, 0x12, 0xd3, 0xf4, 0xfb, 0x1f, 0xd7, 0x04, 0x14, 0xac, 0xe2, 0x10, 0xd9, 0x14, 0xef, 0x14, 0xe8, 0xf1, 0x34, 0xdf, 0x3b, 0x26, 0xdc, 0xcb, 0x26, 0x45, 0x29, 0x0d, 0xde, 0x4e, 0xf6, 0x0b, 0x03, 0x81, 0x05, 0x3e, 0x02, 0xe3, 0x72, 0x2f, 0x17, 0xfd, 0x00, 0xf1, 0xf7, 0xca, 0x44, 0x0f, 0x12, 0xff, 0x09, 0x12, 0x03, 0x1d, 0xe4, 0xee, 0xe5, 0xec, 0x4d, 0x1e, 0xec, 0x1d, 0x06, 0xec, 0x00, 0xba, 0xec, 0x1e, 0x15, 0xd5, 0x20, 0xfc, 0x31, 0x23, 0x14, 0xda, 0xf0, 0x01, 0xe3, 0xcb, 0xcc, 0x36, 0x01, 0xbb, 0x1f, 0x19, 0x08, 0x12, 0xfe, 0x57, 0x2b, 0x1d, 0x32, 0x81, 0xf2, 0xc7, 0xb5, 0xd5, 0x27, 0xf9, 0x0e, 0x3d, 0x85, 0xd1, 0xe0, 0x8e, 0xff, 0xe0, 0xf3, 0xee, 0xef, 0xfd, 0x07, 0x0f, 0x13, 0xf8, 0xf1, 0x23, 0xe4, 0xea, 0xf5, 0xe7, 0x0a, 0x01, 0xd9, 0xe8, 0xdf, 0xe1, 0xe6, 0x02, 0x17, 0x0c, 0x0f, 0x0f, 0x2a, 0xea, 0xf1, 0x2f, 0x14, 0xd4, 0x15, 0xee, 0xec, 0xda, 0xd2, 0xc9, 0xdb, 0x39, 0xe7, 0xc9, 0xe1, 0xeb, 0x02, 0xe1, 0xfd, 0x2a, 0xef, 0xc0, 0xeb, 0x43, 0x90, 0x7f, 0x32, 0x35, 0xfc, 0xe3, 0xe6, 0x02, 0xfc, 0xe6, 0xf1, 0xe1, 0xde, 0xf2, 0x0e, 0xff, 0xd8, 0xe0, 0x02, 0x0e, 0x15, 0xe7, 0xf4, 0xf3, 0xe6, 0xf8, 0xdc, 0xe7, 0x05, 0x01, 0x1a, 0xe0, 0xf2, 0xeb, 0x0c, 0xe7, 0x1c, 0xfc, 0x0b, 0x81, 0x46, 0x35, 0xe7, 0x14, 0xf2, 0x1a, 0xe1, 0xbb, 0xc5, 0xc6, 0x0c, 0x00, 0xf7, 0x2c, 0xe9, 0x48, 0x29, 0x7f, 0x2e, 0x23, 0xdc, 0x2e, 0x05, 0xd3, 0x0b, 0xf1, 0x21, 0xd1, 0x05, 0xed, 0x2a, 0xd2, 0xcf, 0xd3, 0x09, 0x10, 0x1e, 0xf9, 0xea, 0xe5, 0xe4, 0xc8, 0xf4, 0xef, 0xcf, 0x09, 0xf9, 0xe6, 0xd5, 0x13, 0xf2, 0x4e, 0x11, 0xe1, 0xb7, 0xe0, 0x10, 0x0f, 0x4a, 0x5d, 0xdf, 0xee, 0xf6, 0x0d, 0x07, 0x81, 0xeb, 0x18, 0xe2, 0xee, 0x44, 0x1d, 0xf8, 0x24, 0x25, 0x1c, 0xb0, 0xe7, 0x41, 0x29, 0x0e, 0xd6, 0x09, 0x1b, 0xc9, 0x37, 0x1a, 0x2a, 0x07, 0x06, 0xfb, 0xa2, 0xdb, 0x11, 0x30, 0x21, 0x1a, 0xf4, 0xed, 0x10, 0xe0, 0x12, 0xee, 0xe9, 0x1e, 0x00, 0x36, 0xff, 0x19, 0xac, 0xe4, 0x06, 0x46, 0x7f, 0xe2, 0xde, 0x40, 0xe2, 0x1e, 0xf3, 0x0b, 0x09, 0xd5, 0xa4, 0x51, 0xcd, 0x0c, 0x0a, 0xe0, 0x17, 0xf2, 0xf1, 0x38, 0x26, 0x18, 0x0a, 0x11, 0xd6, 0x19, 0x1e, 0x04, 0x25, 0x1b, 0xf0, 0x09, 0x4a, 0x25, 0xfa, 0xfc, 0xe9, 0xf2, 0xfe, 0xdc, 0x13, 0x22, 0x0a, 0xff, 0x30, 0x81, 0x5a, 0x4b, 0xf2, 0x36, 0x0e, 0x15, 0xe1, 0xe1, 0x1b, 0x14, 0xfb, 0xc8, 0xe1, 0xf7, 0x8e, 0xad, 0x17, 0x1d, 0x04, 0xd9, 0x10, 0xc7, 0xba, 0xeb, 0x2b, 0xc0, 0x90, 0x66, 0xc3, 0xf3, 0x17, 0x10, 0x19, 0x0b, 0x45, 0x1b, 0xf9, 0xd0, 0xf8, 0xbf, 0xd5, 0xe4, 0xfa, 0xe6, 0xe3, 0x28, 0xd1, 0x18, 0xe9, 0xbf, 0xe0, 0x00, 0xd8, 0x16, 0x12, 0xdc, 0x30, 0xf0, 0xd9, 0xe6, 0x09, 0x11, 0xf5, 0x19, 0x22, 0x05, 0xe2, 0x05, 0x19, 0xdf, 0xfa, 0xb4, 0xa0, 0xed, 0x2d, 0xcd, 0xff, 0x34, 0x2a, 0xec, 0x1a, 0xd2, 0x01, 0x1d, 0x07, 0xe9, 0xde, 0x09, 0x17, 0x02, 0x1f, 0xe7, 0x28, 0x81, 0xe6, 0x24, 0x24, 0xe8, 0xf8, 0x19, 0xf9, 0xfc, 0xe9, 0x3a, 0x19, 0x2c, 0xf0, 0xcf, 0xc8, 0xf1, 0xf7, 0x03, 0xfa, 0xdc, 0xfb, 0x0a, 0xe8, 0xe2, 0x0a, 0x1e, 0xf9, 0x2c, 0x2a, 0x01, 0xb0, 0x28, 0x3c, 0x2c, 0xee, 0x13, 0xe9, 0x57, 0xfb, 0xde, 0xf1, 0x2f, 0xfc, 0xf5, 0x04, 0x0e, 0xef, 0xef, 0x30, 0xe0, 0xfa, 0x25, 0xdd, 0x7f, 0xed, 0x2a, 0x27, 0xc5, 0x03, 0x25, 0xe2, 0xe6, 0xf7, 0x1d, 0x08, 0xef, 0xfb, 0xe8, 0xf4, 0xf0, 0x14, 0x1c, 0xfa, 0xfc, 0x1c, 0x01, 0x03, 0xf3, 0xf7, 0xc2, 0xe5, 0x15, 0xe9, 0x0e, 0x18, 0xf8, 0xfb, 0x27, 0xd2, 0x0a, 0x1d, 0x01, 0x58, 0x04, 0xfb, 0x07, 0xf5, 0xeb, 0xea, 0x0e, 0x1d, 0x0c, 0x08, 0x06, 0x07, 0xd2, 0xe0, 0x48, 0x26, 0xea, 0x03, 0xff, 0x56, 0x03, 0xee, 0x81, 0xfa, 0xe0, 0x0f, 0xf8, 0x13, 0x41, 0x23, 0x03, 0xe7, 0x0b, 0xf9, 0x21, 0xea, 0xd5, 0x06, 0x04, 0x27, 0x10, 0x00, 0x0e, 0x1c, 0xf1, 0xec, 0x13, 0x15, 0xe8, 0x0d, 0x0a, 0xe8, 0xee, 0x00, 0xed, 0xe2, 0x27, 0x3f, 0xec, 0xf8, 0xac, 0xe3, 0xf7, 0x0e, 0xe7, 0xec, 0x0e, 0xcc, 0xdb, 0xe0, 0x45, 0xf9, 0xdd, 0xd7, 0xfc, 0xf6, 0xf7, 0x0a, 0x06, 0xe5, 0x07, 0x7f, 0x21, 0xd7, 0x1e, 0x25, 0xe0, 0xea, 0xe1, 0x08, 0xfd, 0xef, 0x01, 0x08, 0xdc, 0xe2, 0x21, 0x05, 0xf1, 0x52, 0x03, 0x1a, 0x33, 0x15, 0xe6, 0xf1, 0xf8, 0xf8, 0xd0, 0x2b, 0x0b, 0x10, 0x20, 0x03, 0xb8, 0xf8, 0xfe, 0xb2, 0x0f, 0x0a, 0x15, 0xdc, 0xde, 0xd4, 0x4e, 0x24, 0x09, 0x23, 0x1f, 0xdb, 0xf4, 0xe1, 0x22, 0xed, 0xd5, 0xbc, 0x59, 0x16, 0xac, 0x81, 0x0b, 0x0e, 0x1f, 0xec, 0xd0, 0xda, 0x0d, 0xde, 0xf8, 0x2e, 0x21, 0x26, 0x22, 0x05, 0xbe, 0x61, 0x14, 0x2b, 0x10, 0x2b, 0x0c, 0x30, 0xdf, 0x01, 0xf8, 0xfe, 0x27, 0x06, 0x07, 0xa2, 0xd1, 0x07, 0x27, 0x18, 0x00, 0x95, 0xcf, 0x50, 0xfe, 0xcb, 0x17, 0xf4, 0xe4, 0xc9, 0xdf, 0x2e, 0xd7, 0x0b, 0xe5, 0xec, 0xeb, 0x0f, 0x35, 0xf4, 0x81, 0x20, 0x59, 0xec, 0x12, 0xfc, 0x28, 0xfc, 0xf1, 0xda, 0xf9, 0xf1, 0x27, 0x22, 0xfc, 0xeb, 0x04, 0xf3, 0xf7, 0x04, 0x16, 0x01, 0xf1, 0xee, 0xf2, 0x07, 0x21, 0x02, 0xf8, 0xf5, 0x0c, 0xe7, 0x03, 0x06, 0xf0, 0xf4, 0xd8, 0x10, 0x05, 0xd5, 0xfc, 0xeb, 0x09, 0xfd, 0x11, 0xeb, 0x04, 0xf4, 0xbe, 0x05, 0x13, 0xfc, 0xfa, 0xe4, 0x1d, 0xf4, 0xee, 0xd6, 0xfe, 0xf8, 0x93, 0x81, 0x05, 0x19, 0x0c, 0xef, 0xfd, 0xf9, 0xfa, 0xfb, 0x04, 0xf0, 0x09, 0x05, 0x07, 0x01, 0x05, 0xfe, 0x14, 0x03, 0xfd, 0xf7, 0xea, 0xf6, 0xf1, 0x04, 0x08, 0xf2, 0x0b, 0xfd, 0xfc, 0x0c, 0xff, 0x06, 0x00, 0xfb, 0x12, 0x05, 0x81, 0x00, 0xf6, 0x12, 0x16, 0x00, 0x04, 0x07, 0x07, 0xf9, 0x04, 0x08, 0x12, 0x05, 0xfd, 0x11, 0xff, 0xf8, 0xf8, 0xf8, 0xe8, 0xd3, 0xf1, 0x09, 0xed, 0x01, 0x02, 0x57, 0xd7, 0xe1, 0xe0, 0x81, 0xef, 0xd3, 0xd0, 0xdf, 0x6a, 0x2b, 0x0c, 0xab, 0x3a, 0x18, 0x51, 0x28, 0x1d, 0x21, 0xff, 0x39, 0x53, 0x0e, 0xc2, 0x41, 0xdf, 0xac, 0xd1, 0x3f, 0x1d, 0x83, 0xdd, 0x03, 0x22, 0x1b, 0xe0, 0x42, 0xaf, 0xbe, 0x41, 0xa2, 0x75, 0xe8, 0x99, 0x92, 0x03, 0xf1, 0xe7, 0xed, 0xba, 0x12, 0x3d, 0x1a, 0x16, 0xe8, 0x05, 0xe6, 0x04, 0x0e, 0xf5, 0xfe, 0xf6, 0xf1, 0x2d, 0x3f, 0xd5, 0x0a, 0x3a, 0xff, 0xf3, 0x0e, 0xfb, 0xfc, 0x04, 0x03, 0x09, 0x07, 0xe7, 0x01, 0xf5, 0x0b, 0xd7, 0x34, 0xe9, 0xea, 0xf8, 0x29, 0xfd, 0xf7, 0x1c, 0xff, 0xfa, 0x17, 0x16, 0xf5, 0x1c, 0xe7, 0xf7, 0xd4, 0xd5, 0x1c, 0x08, 0x2a, 0x03, 0xd7, 0xe4, 0xfc, 0x8b, 0xea, 0xa2, 0x81, 0x18, 0x1e, 0xf9, 0x0b, 0xab, 0xcd, 0x12, 0xfe, 0xe9, 0x0d, 0xdc, 0x16, 0xf6, 0x00, 0x1f, 0xf4, 0x3a, 0xea, 0x53, 0xe6, 0xfd, 0x33, 0xd7, 0xe1, 0x10, 0xfe, 0xdd, 0x1e, 0xe8, 0xec, 0xf7, 0xef, 0xf9, 0xf7, 0x04, 0xbf, 0xea, 0x50, 0x23, 0xcd, 0x00, 0xdb, 0xf2, 0x1d, 0xff, 0x0f, 0x0c, 0x28, 0x16, 0xee, 0xfb, 0xad, 0x7f, 0xb4, 0x0c, 0xd2, 0x9e, 0x12, 0x18, 0x27, 0x24, 0x2c, 0xcd, 0x42, 0x4c, 0xb6, 0x1f, 0x57, 0x3c, 0x12, 0x0b, 0xe0, 0xbc, 0xb8, 0xe8, 0x0a, 0xf0, 0x04, 0xd4, 0x1e, 0x0f, 0xcb, 0xd3, 0x1a, 0x0d, 0x02, 0xf9, 0xd1, 0xb5, 0xc8, 0x1e, 0x57, 0xaa, 0xe1, 0x45, 0xd4, 0xf8, 0x81, 0x02, 0x70, 0x1f, 0xf3, 0xa4, 0xe7, 0x29, 0x04, 0x12, 0xcd, 0x47, 0xc6, 0xa4, 0x3b, 0xac, 0xcc, 0xfb, 0xd6, 0x09, 0xe8, 0x05, 0xd5, 0xeb, 0x2c, 0xe8, 0x01, 0x06, 0x07, 0xc3, 0x13, 0xf7, 0x16, 0xdf, 0xe7, 0xfb, 0x57, 0xea, 0x08, 0x0f, 0x20, 0x07, 0x0f, 0x02, 0xec, 0x12, 0x15, 0xf6, 0xfc, 0xc3, 0xef, 0x1d, 0x24, 0xfe, 0x07, 0x24, 0xe4, 0xf1, 0xe2, 0xf4, 0x01, 0x15, 0xfc, 0x0a, 0x0b, 0xfc, 0x1f, 0x02, 0xd4, 0x29, 0xbf, 0xd3, 0x08, 0xe9, 0x1e, 0x95, 0x81, 0x09, 0xf8, 0x1a, 0xfe, 0x72, 0x09, 0xe4, 0xf7, 0x0d, 0x1f, 0x1d, 0xfd, 0xc7, 0xd9, 0x02, 0x30, 0x09, 0x1e, 0xeb, 0xcf, 0xe5, 0x29, 0xf9, 0xe4, 0x13, 0x13, 0x35, 0x18, 0x2c, 0xf1, 0x14, 0xe6, 0x00, 0xd9, 0xf7, 0x1d, 0xdd, 0xd6, 0xd1, 0xd4, 0x40, 0x20, 0xc4, 0x13, 0xdf, 0xfb, 0xfc, 0x27, 0x0f, 0xfe, 0x27, 0x08, 0x31, 0x10, 0xfd, 0x22, 0xfa, 0x81, 0x15, 0x0b, 0xf4, 0x0e, 0xfd, 0xfe, 0xf5, 0xf8, 0xff, 0xf7, 0xfb, 0xfd, 0x06, 0x07, 0x06, 0x04, 0x00, 0xfd, 0xfb, 0xf6, 0x04, 0x05, 0x03, 0xfc, 0xfb, 0xfc, 0x09, 0xf4, 0xf9, 0x0d, 0x05, 0x0e, 0x0d, 0xfc, 0x02, 0xf8, 0xfa, 0x01, 0x00, 0x08, 0xfb, 0xf8, 0xf6, 0xf1, 0xfc, 0x06, 0xfe, 0xee, 0xf6, 0x13, 0x01, 0x01, 0x00, 0x01, 0xcb, 0x7f, 0x06, 0x0f, 0x06, 0x0a, 0xfb, 0x02, 0x28, 0xef, 0x2e, 0x11, 0x06, 0xfa, 0xe9, 0x3d, 0x3f, 0x03, 0x08, 0xce, 0x03, 0x0d, 0xdf, 0x03, 0xee, 0xd4, 0x18, 0xed, 0x08, 0xe1, 0xdd, 0x0d, 0x31, 0xd7, 0x2c, 0x07, 0xb2, 0xea, 0x1b, 0xde, 0xea, 0xcc, 0x05, 0xec, 0x04, 0x0c, 0x37, 0x15, 0xd2, 0xdb, 0xc8, 0xd8, 0x01, 0x32, 0xd6, 0xc0, 0xcf, 0x56, 0xd5, 0xc7, 0xa0, 0x81, 0x11, 0x12, 0xda, 0x24, 0x1a, 0xe0, 0xef, 0xd2, 0xd2, 0xfe, 0xd9, 0x29, 0xf5, 0xf3, 0xd9, 0x0d, 0xed, 0xf3, 0xf8, 0x0d, 0xdc, 0x1f, 0xe0, 0x19, 0xef, 0xe6, 0x18, 0x21, 0xfe, 0xea, 0xb2, 0x06, 0x3f, 0x22, 0xe1, 0x13, 0x7f, 0x0b, 0x08, 0x19, 0xe4, 0xef, 0x19, 0xf5, 0x49, 0x0a, 0xdd, 0xeb, 0x08, 0x1d, 0x0a, 0x1a, 0x06, 0xe7, 0xa6, 0xa5, 0x16, 0xaf, 0x11, 0xda, 0x0b, 0xf4, 0xec, 0xbc, 0xda, 0x15, 0x42, 0x46, 0x38, 0xf9, 0xe4, 0xfe, 0xf2, 0x04, 0x64, 0x9a, 0x00, 0x29, 0xe4, 0x4e, 0x36, 0xec, 0xc7, 0xd4, 0x28, 0x19, 0x00, 0xa9, 0x14, 0x1d, 0xcd, 0xd7, 0xf9, 0xab, 0x22, 0x0a, 0xc0, 0xec, 0x1d, 0x21, 0xe9, 0xfa, 0x4e, 0xda, 0xfa, 0xbf, 0xcf, 0xe3, 0xf0, 0xb8, 0x26, 0x01, 0x0e, 0xd4, 0xdf, 0x81, 0x13, 0xd8, 0x34, 0xdf, 0x0b, 0xfd, 0x04, 0xfe, 0x07, 0xf9, 0x11, 0xf4, 0xc5, 0x17, 0x03, 0x16, 0x22, 0x2b, 0x06, 0x02, 0x27, 0xf6, 0x09, 0xfd, 0x1f, 0x0e, 0xe9, 0xef, 0x23, 0x24, 0xf9, 0xd5, 0xde, 0xd9, 0xef, 0x0b, 0x21, 0xf9, 0xf0, 0x0d, 0xcc, 0x1a, 0x07, 0xe0, 0x04, 0x06, 0x30, 0xf0, 0xe4, 0xfe, 0x17, 0xfd, 0xfa, 0x23, 0xf4, 0xfd, 0x81, 0x1a, 0xef, 0xdf, 0xe7, 0xff, 0xf1, 0xee, 0x2b, 0xfd, 0x12, 0xff, 0xf1, 0xf1, 0x33, 0x81, 0x56, 0x2b, 0xec, 0xf2, 0x01, 0x02, 0x25, 0x13, 0x02, 0xeb, 0x1e, 0x1b, 0x16, 0x20, 0xfb, 0xeb, 0xf8, 0xf0, 0xeb, 0x15, 0xfe, 0xf4, 0x00, 0xfa, 0xdb, 0xc5, 0x4b, 0xff, 0xe8, 0xbb, 0xb9, 0x22, 0x22, 0x0c, 0xbf, 0xc3, 0x11, 0x1a, 0x3d, 0xf9, 0xf4, 0xf5, 0x31, 0x46, 0x08, 0x31, 0xfa, 0xd1, 0x16, 0xea, 0xfb, 0x1f, 0x05, 0x17, 0x2e, 0x07, 0x2c, 0xf0, 0xe9, 0x0c, 0xef, 0xf8, 0x08, 0xf6, 0xe4, 0xf0, 0xf2, 0x03, 0xf5, 0x18, 0x0e, 0xf1, 0x33, 0xb6, 0xef, 0x0a, 0x05, 0xfb, 0xcd, 0xf4, 0x43, 0x3e, 0x0b, 0xd9, 0x31, 0x20, 0xef, 0xd0, 0xcd, 0x06, 0xe9, 0xec, 0x0b, 0x26, 0x05, 0xd6, 0xc4, 0x66, 0xff, 0xb5, 0x81, 0x96, 0x23, 0x27, 0xdd, 0x19, 0xcc, 0xed, 0x13, 0x3e, 0x15, 0xfd, 0x03, 0x05, 0xfe, 0x1d, 0x40, 0xf2, 0xf4, 0x23, 0xe5, 0xd2, 0x25, 0xd7, 0xe1, 0xe1, 0xc6, 0xfb, 0xd6, 0xcd, 0x1f, 0x58, 0x4a, 0x0d, 0xaa, 0xdf, 0x21, 0xbf, 0x27, 0xa6, 0x57, 0x3d, 0x81, 0xa0, 0x19, 0xee, 0xfc, 0x03, 0x0f, 0xc8, 0x4f, 0x0a, 0x08, 0x0d, 0xe1, 0x09, 0x1f, 0xac, 0xcf, 0x42, 0x1a, 0x2e, 0x1a, 0xef, 0x23, 0xef, 0xf8, 0xe8, 0xf5, 0x29, 0x39, 0xe8, 0xbd, 0xe2, 0xf6, 0x03, 0xc1, 0xfd, 0xe6, 0x3d, 0x1b, 0x02, 0xc5, 0xd9, 0xf8, 0x02, 0x0e, 0xe8, 0x38, 0xd1, 0x40, 0xfc, 0xf8, 0xed, 0xe7, 0x1c, 0x0c, 0xea, 0x3b, 0xee, 0xe8, 0x08, 0xf5, 0xf2, 0xfa, 0x5e, 0x29, 0xe8, 0xb1, 0x09, 0x16, 0xa8, 0xd5, 0xd7, 0x27, 0x00, 0xa8, 0x81, 0xfe, 0x1b, 0xfd, 0xf8, 0x0d, 0x15, 0xfc, 0xfa, 0xeb, 0xf1, 0xf1, 0xfa, 0xf1, 0xf7, 0xf4, 0x05, 0xdf, 0xe0, 0xfd, 0x10, 0x14, 0x25, 0x1d, 0x1b, 0x06, 0xe8, 0xfc, 0xfa, 0xe4, 0x55, 0xd5, 0x01, 0x23, 0x36, 0xd4, 0x11, 0x1a, 0xef, 0x0f, 0x17, 0x12, 0xdd, 0xf8, 0xde, 0xe8, 0x15, 0x27, 0x1d, 0xf3, 0xc9, 0xf7, 0xd6, 0x44, 0x0a, 0xf3, 0x15, 0xad, 0x81, 0xe3, 0x0a, 0xec, 0xde, 0xfd, 0x07, 0x03, 0x1e, 0x06, 0x14, 0x22, 0xd3, 0xe7, 0x32, 0x20, 0xf1, 0xd9, 0x3c, 0xf6, 0xf4, 0xbe, 0xef, 0x26, 0xb8, 0xc7, 0xfd, 0xf7, 0xdd, 0x2e, 0xdf, 0x2c, 0x24, 0xe9, 0x1b, 0x0a, 0xce, 0x26, 0xbe, 0x18, 0x2c, 0xd8, 0xe8, 0xea, 0x0c, 0x09, 0xf4, 0xee, 0xba, 0x53, 0x0e, 0xf2, 0x18, 0xdf, 0xea, 0x12, 0xeb, 0xfb, 0x81, 0x0b, 0x1a, 0x16, 0xfa, 0x0f, 0xfa, 0xdc, 0x60, 0xf4, 0xe8, 0xf3, 0x39, 0x7f, 0x13, 0xe2, 0xe1, 0xf1, 0x20, 0x12, 0x3a, 0xe1, 0xe1, 0xec, 0x03, 0xc6, 0xf5, 0x15, 0x0a, 0xee, 0x28, 0xf7, 0xeb, 0x00, 0xd5, 0xe6, 0xeb, 0x41, 0x50, 0x09, 0x0f, 0xc9, 0xf3, 0x19, 0xba, 0x23, 0xf9, 0xfc, 0xe5, 0x15, 0x3b, 0x12, 0xff, 0xf8, 0xd3, 0xad, 0x42, 0x0c, 0xd3, 0xfe, 0xec, 0x1d, 0xf4, 0x24, 0x01, 0x17, 0x09, 0x14, 0xea, 0x1d, 0x0f, 0x1a, 0xec, 0xeb, 0xf4, 0x05, 0x20, 0x13, 0x04, 0xe9, 0x02, 0xee, 0x0f, 0xf9, 0x05, 0x0f, 0xec, 0x01, 0x16, 0x03, 0xf6, 0xe9, 0xfb, 0x00, 0x25, 0x81, 0xee, 0xf2, 0xde, 0x07, 0x30, 0xd9, 0xac, 0x11, 0x0c, 0x0d, 0x0b, 0xfe, 0x05, 0x1d, 0x34, 0x14, 0xa6, 0xc9, 0xfd, 0x1e, 0xe1, 0x05, 0xf5, 0xfa, 0xf0, 0xe5, 0x54, 0xe9, 0x01, 0xf6, 0x03, 0xe5, 0xc5, 0x3d, 0x08, 0xdf, 0x36, 0x1c, 0x1a, 0x12, 0x32, 0x31, 0xfc, 0xf7, 0x23, 0x38, 0x1d, 0x04, 0x02, 0xdd, 0x22, 0x2f, 0xf7, 0xe7, 0xf4, 0x1d, 0xb6, 0x81, 0x0c, 0x1b, 0x1e, 0xdd, 0xe9, 0x2b, 0x13, 0x13, 0xcc, 0x11, 0x3d, 0xca, 0xcb, 0x14, 0x20, 0x50, 0xe0, 0x0b, 0xe5, 0x0a, 0x1b, 0xda, 0x1e, 0xff, 0xe9, 0xf7, 0xd7, 0x00, 0x12, 0xf5, 0x2a, 0x01, 0xde, 0xde, 0xce, 0xd5, 0xb8, 0xe2, 0xe1, 0xe0, 0xf5, 0x03, 0xe0, 0x0a, 0x10, 0xec, 0xdd, 0xf4, 0x14, 0xe5, 0xe3, 0xed, 0xfc, 0xe5, 0x41, 0x09, 0xe7, 0x98, 0x15, 0xf8, 0xa3, 0x4a, 0x54, 0xb7, 0xe2, 0xb3, 0xf9, 0x29, 0xfe, 0xd9, 0x08, 0xcb, 0xb6, 0xec, 0x60, 0x04, 0xdf, 0x81, 0x79, 0xfe, 0x38, 0xff, 0xfa, 0xfc, 0x01, 0x25, 0x08, 0x01, 0x0d, 0xd5, 0xf7, 0xfc, 0x2f, 0x15, 0x1a, 0xf1, 0xf3, 0x20, 0xef, 0xfa, 0xf8, 0xee, 0x0b, 0x11, 0x0e, 0x0b, 0x0e, 0x05, 0xec, 0x00, 0xe0, 0xdb, 0x06, 0xf6, 0x0d, 0x11, 0x12, 0x14, 0x10, 0xed, 0xde, 0xd6, 0x9d, 0xfb, 0x1b, 0x11, 0xea, 0xe9, 0x1b, 0x16, 0xf8, 0xd6, 0xec, 0xe0, 0xfe, 0x81, 0x90, 0xf5, 0x0e, 0xf6, 0xfb, 0x97, 0xd8, 0x56, 0x2c, 0xc7, 0x2b, 0xe5, 0xbe, 0x2a, 0x27, 0x13, 0x01, 0xce, 0x81, 0x44, 0x55, 0xc6, 0xf3, 0xe1, 0x18, 0xe5, 0xff, 0xbc, 0x27, 0x38, 0xf6, 0xe5, 0xcf, 0x9e, 0xfd, 0xc3, 0x44, 0x14, 0xd5, 0x10, 0x3d, 0xa6, 0x44, 0xd4, 0xe3, 0xbb, 0xc1, 0x21, 0xea, 0x04, 0xda, 0x07, 0x9f, 0x3f, 0x4e, 0x6a, 0x2a, 0x04, 0xb6, 0x45, 0xf4, 0xd5, 0xe1, 0xf8, 0xf7, 0xe7, 0xfa, 0xfc, 0xe7, 0xf6, 0x03, 0xf8, 0x7f, 0xd3, 0xba, 0xde, 0x04, 0x15, 0xf4, 0xfc, 0xf1, 0x14, 0x01, 0xe7, 0x0f, 0xfd, 0xf1, 0x07, 0x1a, 0x00, 0xef, 0xd7, 0x21, 0x27, 0x20, 0x24, 0xd2, 0x26, 0x09, 0x1d, 0xc4, 0xf3, 0xf6, 0x04, 0x17, 0xf6, 0xf4, 0x12, 0x28, 0x08, 0x20, 0x16, 0xe3, 0x17, 0x03, 0x1f, 0x13, 0x22, 0xe9, 0x0e, 0xf5, 0x07, 0x17, 0x49, 0x15, 0x29, 0x2c, 0xee, 0xe7, 0x18, 0xeb, 0xcb, 0xdc, 0x17, 0xe1, 0xce, 0xf0, 0xd4, 0x22, 0xe7, 0xd5, 0x09, 0xe9, 0xff, 0x00, 0x06, 0xea, 0x25, 0x1e, 0xea, 0xd6, 0x08, 0x51, 0xfd, 0xa3, 0x09, 0x37, 0xf8, 0x24, 0xfb, 0xd6, 0x17, 0x6a, 0x14, 0x0c, 0xf6, 0x0f, 0xfd, 0x04, 0x53, 0x24, 0x72, 0xea, 0x7f, 0xdb, 0x16, 0xfd, 0xeb, 0x1c, 0x1a, 0x07, 0xe3, 0x2d, 0x0f, 0xef, 0x53, 0x11, 0xee, 0x44, 0x2a, 0xbc, 0x0d, 0x13, 0xf7, 0x22, 0x0d, 0xbb, 0x26, 0x12, 0xe2, 0xe9, 0xfb, 0xc7, 0x1c, 0x32, 0x08, 0xe4, 0x08, 0xf8, 0xed, 0x1c, 0xd3, 0x1e, 0x29, 0x07, 0x00, 0xcf, 0x09, 0xfb, 0x11, 0xb4, 0x24, 0xdd, 0xcb, 0x38, 0xc9, 0xad, 0xf5, 0x64, 0x81, 0x6c, 0x54, 0xd6, 0x01, 0x31, 0x29, 0xf7, 0xdf, 0xf4, 0xf1, 0xd7, 0x45, 0x4c, 0xdd, 0xd1, 0x4f, 0x23, 0x2b, 0x1f, 0x10, 0x10, 0xfa, 0x13, 0xfa, 0xf0, 0x12, 0x15, 0xe6, 0xfb, 0x17, 0xe3, 0xfc, 0xc8, 0x02, 0xea, 0xef, 0xef, 0x23, 0x38, 0x7f, 0xf8, 0x46, 0x1a, 0xcd, 0x14, 0xe3, 0xc7, 0x0d, 0xa1, 0xe8, 0x0f, 0x26, 0xe1, 0x18, 0x17, 0xe3, 0xde, 0x38, 0x0e, 0xe8, 0xcc, 0xf8, 0xe1, 0xf7, 0xfd, 0x18, 0x62, 0xc1, 0xee, 0xde, 0xc3, 0x5f, 0x12, 0x4c, 0x3b, 0x06, 0xcc, 0xf0, 0xb6, 0xfd, 0x32, 0x2f, 0xfa, 0xea, 0x3a, 0xfc, 0x05, 0x1e, 0xc5, 0x19, 0x22, 0xd4, 0xca, 0x4e, 0xd9, 0x9c, 0x98, 0x57, 0x1a, 0xa9, 0xcb, 0x5d, 0x2b, 0xde, 0x29, 0x42, 0xf4, 0x08, 0x2f, 0xad, 0x81, 0xfa, 0x99, 0xb4, 0xa2, 0x44, 0xbc, 0xfc, 0x0a, 0xcc, 0x10, 0x08, 0x0c, 0xd3, 0x4d, 0xba, 0xd7, 0xd4, 0xbf, 0x97, 0xc7, 0x91, 0x75, 0x62, 0xc7, 0x0e, 0x30, 0xa8, 0x10, 0x37, 0x3a, 0x32, 0xfd, 0x44, 0xd6, 0x38, 0xe0, 0x0b, 0x4a, 0xf8, 0xe7, 0x29, 0x5c, 0xf4, 0xc4, 0x26, 0x60, 0x35, 0x21, 0xfc, 0x90, 0x9a, 0xf2, 0x7f, 0x46, 0x52, 0xe8, 0x9c, 0xba, 0x54, 0xa5, 0xd2, 0x02, 0x24, 0x51, 0x25, 0x78, 0x17, 0x3f, 0x36, 0x0d, 0xfa, 0xf4, 0xff, 0xff, 0x04, 0x00, 0x00, 0x00, 0x00, 0x01, 0x00, 0x00, 0x11, 0xe5, 0xff, 0xff, 0x39, 0xf9, 0xff, 0xff, 0x36, 0xec, 0xff, 0xff, 0xa6, 0xf0, 0xff, 0xff, 0x3d, 0xfe, 0xff, 0xff, 0x6c, 0xf9, 0xff, 0xff, 0xf5, 0xf2, 0xff, 0xff, 0x7e, 0xe9, 0xff, 0xff, 0xa1, 0xf4, 0xff, 0xff, 0x34, 0xf9, 0xff, 0xff, 0xef, 0xe9, 0xff, 0xff, 0x5c, 0xdd, 0xff, 0xff, 0xe2, 0xe9, 0xff, 0xff, 0xdc, 0xf3, 0xff, 0xff, 0x75, 0xf0, 0xff, 0xff, 0x2c, 0xef, 0xff, 0xff, 0x12, 0xe6, 0xff, 0xff, 0xb9, 0xf3, 0xff, 0xff, 0x2f, 0xec, 0xff, 0xff, 0xb2, 0xf0, 0xff, 0xff, 0x81, 0xe9, 0xff, 0xff, 0x77, 0xf3, 0xff, 0xff, 0x2e, 0xed, 0xff, 0xff, 0xb9, 0xee, 0xff, 0xff, 0x36, 0xf2, 0xff, 0xff, 0x1f, 0xf6, 0xff, 0xff, 0xe9, 0xde, 0xff, 0xff, 0x81, 0xf4, 0xff, 0xff, 0x2e, 0x01, 0x00, 0x00, 0x1a, 0xf6, 0xff, 0xff, 0x7a, 0xef, 0xff, 0xff, 0x6a, 0xf3, 0xff, 0xff, 0xe0, 0xe5, 0xff, 0xff, 0x6c, 0xff, 0xff, 0xff, 0x07, 0xfa, 0xff, 0xff, 0xd4, 0xe5, 0xff, 0xff, 0x2e, 0xf8, 0xff, 0xff, 0xbe, 0xf4, 0xff, 0xff, 0xbd, 0xef, 0xff, 0xff, 0xf2, 0xfa, 0xff, 0xff, 0xde, 0xef, 0xff, 0xff, 0xa3, 0xf1, 0xff, 0xff, 0xa9, 0xf6, 0xff, 0xff, 0x13, 0xf1, 0xff, 0xff, 0x6e, 0xec, 0xff, 0xff, 0x8d, 0xf5, 0xff, 0xff, 0x2c, 0xea, 0xff, 0xff, 0xd4, 0xf9, 0xff, 0xff, 0xd6, 0xee, 0xff, 0xff, 0x73, 0xf5, 0xff, 0xff, 0x88, 0xfc, 0xff, 0xff, 0x65, 0xfb, 0xff, 0xff, 0x49, 0xf1, 0xff, 0xff, 0xae, 0xee, 0xff, 0xff, 0x33, 0xe6, 0xff, 0xff, 0x8c, 0xe5, 0xff, 0xff, 0xcb, 0xfc, 0xff, 0xff, 0x24, 0xe5, 0xff, 0xff, 0x7c, 0xf0, 0xff, 0xff, 0x4b, 0xeb, 0xff, 0xff, 0x52, 0xeb, 0xff, 0xff, 0x8e, 0xf2, 0xff, 0xff, 0xad, 0xf0, 0xff, 0xff, 0x42, 0xe9, 0xff, 0xff, 0x06, 0xf6, 0xff, 0xff, 0x04, 0x00, 0x00, 0x00, 0x00, 0x08, 0x00, 0x00, 0x04, 0xda, 0x1e, 0xca, 0xe4, 0x08, 0x3a, 0x20, 0xea, 0x2d, 0x2c, 0x3b, 0x10, 0x81, 0x17, 0x25, 0x09, 0x02, 0xf6, 0x34, 0x32, 0x10, 0xea, 0x13, 0x05, 0x1a, 0x3a, 0x05, 0x3a, 0x47, 0x38, 0x06, 0x1a, 0xff, 0x16, 0xe7, 0x42, 0xd0, 0xf4, 0x13, 0x0a, 0x7f, 0x39, 0xcf, 0x07, 0xfd, 0xea, 0x0e, 0x0c, 0xe8, 0x05, 0xf8, 0x00, 0xe6, 0xf3, 0x05, 0xe1, 0x0b, 0xea, 0x1b, 0x10, 0xed, 0x21, 0x2c, 0x08, 0xf9, 0x16, 0xd7, 0x07, 0xe7, 0x85, 0xe9, 0xca, 0xf1, 0x2b, 0x81, 0x0b, 0x19, 0xcf, 0x16, 0x32, 0xfb, 0xdc, 0xd9, 0x24, 0x12, 0xcf, 0x0f, 0xe3, 0x15, 0xdc, 0x09, 0x13, 0xe1, 0xe4, 0x01, 0x03, 0x53, 0x08, 0xe3, 0x05, 0xc9, 0x0a, 0x08, 0x0b, 0x0a, 0xe7, 0x33, 0xc0, 0x03, 0x1c, 0x17, 0x0d, 0xf0, 0xe8, 0x08, 0xfa, 0x05, 0x97, 0x3a, 0xda, 0x07, 0x36, 0xf0, 0xf4, 0x0d, 0xed, 0xee, 0xf0, 0x0e, 0x2c, 0x21, 0xf8, 0x1c, 0x11, 0x4f, 0xf5, 0x04, 0x64, 0xf5, 0xdb, 0x0d, 0x11, 0xe6, 0xfd, 0xfd, 0xed, 0x23, 0x08, 0x26, 0x11, 0xd4, 0x56, 0xff, 0xe0, 0xc5, 0xe4, 0x02, 0x07, 0x0b, 0x7f, 0xfc, 0xe1, 0x10, 0x0b, 0xfc, 0x3d, 0x04, 0x0e, 0x41, 0x29, 0x3a, 0x0e, 0x47, 0x4b, 0x0b, 0x26, 0xf4, 0x01, 0xfc, 0x11, 0x1f, 0x11, 0x36, 0x18, 0x11, 0x49, 0x11, 0xd4, 0xfb, 0x15, 0x10, 0xf8, 0x0a, 0x21, 0xce, 0x25, 0x08, 0xf7, 0x01, 0x0d, 0xcf, 0xd9, 0x15, 0xf8, 0xdb, 0x12, 0xc8, 0x0f, 0x02, 0xcf, 0xf4, 0x17, 0xb2, 0xe8, 0xe9, 0x16, 0xde, 0xfe, 0x0f, 0x00, 0x07, 0xfa, 0x9a, 0x9c, 0xf2, 0x06, 0xee, 0xcc, 0x0f, 0x9d, 0xc6, 0xea, 0xeb, 0xfd, 0x25, 0x81, 0x86, 0xec, 0xf4, 0x0c, 0xc0, 0xa5, 0x20, 0xfc, 0x04, 0xf9, 0xfd, 0xb4, 0x18, 0xc0, 0xf5, 0x95, 0x00, 0xf4, 0x19, 0xff, 0xff, 0xaf, 0xfe, 0xf6, 0xf7, 0xf5, 0xe1, 0x07, 0x10, 0x01, 0x07, 0x32, 0xf5, 0x24, 0x1f, 0x0d, 0xec, 0xd4, 0xbc, 0xe5, 0xce, 0xf8, 0x01, 0xed, 0xc5, 0x12, 0xf6, 0xfa, 0xeb, 0xf4, 0x0f, 0xe7, 0x94, 0xf5, 0x04, 0x81, 0xf4, 0xcb, 0xfa, 0x20, 0xf5, 0xb1, 0xcc, 0xf1, 0x08, 0x0a, 0xb8, 0x04, 0xe5, 0x00, 0x06, 0xdd, 0xd7, 0x1f, 0xc8, 0x8e, 0x07, 0x1a, 0x1b, 0xb6, 0xbf, 0xa4, 0x04, 0x83, 0x04, 0x13, 0xfa, 0xf0, 0x02, 0x0b, 0x05, 0x01, 0x87, 0xf2, 0xff, 0xe3, 0x1e, 0xfb, 0xc1, 0xec, 0xfd, 0x15, 0xe1, 0xbe, 0xd0, 0x00, 0xfc, 0xfa, 0x16, 0xcd, 0xf7, 0x1e, 0x13, 0x0e, 0xbb, 0xac, 0xf1, 0x02, 0x18, 0xe1, 0x0a, 0x03, 0xb3, 0x81, 0x08, 0xe7, 0xcd, 0x9a, 0xfb, 0x12, 0xde, 0x1a, 0x0a, 0x91, 0x0c, 0x24, 0x06, 0xcd, 0x15, 0xc3, 0xe5, 0xdf, 0xb0, 0xe9, 0x8e, 0x02, 0xf7, 0xcb, 0xf2, 0x16, 0xf6, 0x1f, 0x18, 0x17, 0xce, 0x13, 0xee, 0x0c, 0xde, 0xaf, 0x07, 0xc1, 0xb8, 0x22, 0x26, 0xe3, 0xe3, 0x04, 0xe4, 0x15, 0x15, 0x22, 0x1c, 0xcc, 0x0e, 0x0e, 0x1e, 0x0a, 0xd7, 0xf6, 0xf6, 0x1d, 0xf2, 0xfd, 0x0f, 0xfb, 0x9b, 0xf9, 0xfe, 0xe3, 0x12, 0x1c, 0xda, 0xe4, 0xe0, 0x0d, 0xf6, 0xb8, 0x10, 0xdc, 0x0b, 0x81, 0x20, 0xa7, 0xfa, 0xc0, 0xfa, 0x2f, 0x1a, 0xe1, 0x28, 0x02, 0x0c, 0x7a, 0x11, 0x30, 0xe3, 0xf4, 0xc7, 0xec, 0x01, 0x13, 0x44, 0x0a, 0x41, 0xf8, 0xd2, 0x1c, 0xff, 0xbf, 0x35, 0xce, 0x12, 0x00, 0x81, 0x17, 0xd0, 0x23, 0xeb, 0x02, 0x25, 0x08, 0xfa, 0xe1, 0xee, 0x17, 0x11, 0x19, 0x01, 0x2a, 0xde, 0xfa, 0xf5, 0xd3, 0x0e, 0xdf, 0xf5, 0x16, 0xca, 0xe2, 0x3f, 0x02, 0xe5, 0x22, 0xe7, 0x67, 0xce, 0xec, 0x2a, 0x0a, 0x2f, 0x1a, 0xdd, 0x06, 0xfc, 0x1b, 0x03, 0xce, 0xfe, 0xf3, 0x05, 0xf1, 0xee, 0x12, 0x30, 0x0c, 0x00, 0xcf, 0xed, 0x0d, 0xfa, 0x06, 0xed, 0xa0, 0xb2, 0xa5, 0x8c, 0x02, 0xf2, 0xd5, 0xfc, 0xd0, 0xc5, 0x01, 0xf2, 0xeb, 0xda, 0xb5, 0xa6, 0x04, 0xc7, 0xd2, 0x09, 0xeb, 0x07, 0xd0, 0x08, 0xe7, 0x01, 0xcf, 0xc5, 0x10, 0xf0, 0xf7, 0xbc, 0x1b, 0xf5, 0xd4, 0xfe, 0xeb, 0xf9, 0x81, 0x17, 0x17, 0x10, 0xc7, 0xee, 0xcb, 0x0b, 0x02, 0x02, 0x0e, 0x17, 0x02, 0x04, 0x06, 0x25, 0x03, 0x07, 0xf8, 0xf8, 0x03, 0xf2, 0x3b, 0xfb, 0x09, 0x09, 0x11, 0x00, 0x0b, 0x07, 0x12, 0xf5, 0xfd, 0x03, 0x07, 0x08, 0xf6, 0x0e, 0xfe, 0x04, 0x21, 0x0b, 0x09, 0x1a, 0x02, 0x08, 0x13, 0x02, 0xf9, 0x7f, 0x07, 0xf4, 0x04, 0x06, 0xf3, 0x05, 0xfd, 0x0e, 0xfa, 0xf7, 0xfd, 0xf6, 0x0f, 0x1a, 0xfc, 0xe2, 0x19, 0x09, 0x0c, 0xf8, 0x03, 0x0f, 0x14, 0xf9, 0x15, 0xf7, 0xf1, 0x06, 0xd6, 0xe8, 0xe6, 0x10, 0xda, 0xfb, 0x04, 0xf5, 0xe1, 0xc8, 0xf1, 0xfd, 0xf1, 0xf0, 0xc5, 0xe0, 0xfb, 0x0b, 0x07, 0x04, 0xcd, 0x18, 0x05, 0xf8, 0x1f, 0xee, 0xef, 0xbe, 0x06, 0xd9, 0x99, 0xff, 0xed, 0xa2, 0x14, 0xf8, 0xfb, 0x06, 0x0a, 0x13, 0xb8, 0x24, 0xf9, 0x19, 0x81, 0xfd, 0xf4, 0x13, 0xf6, 0x10, 0xff, 0xbf, 0xe9, 0xb3, 0xfa, 0x23, 0x15, 0x09, 0x17, 0xb3, 0x35, 0xe2, 0xf7, 0xad, 0x4e, 0xf4, 0xf0, 0x0e, 0x81, 0x79, 0x1b, 0x4e, 0x39, 0xf7, 0xfe, 0x21, 0x00, 0xde, 0xc9, 0x6f, 0x41, 0x46, 0x33, 0x2a, 0x38, 0xe7, 0xa0, 0x39, 0x3c, 0x8c, 0xf2, 0x05, 0x8f, 0x0c, 0xd1, 0xa4, 0x0e, 0x12, 0xcf, 0xd7, 0xcf, 0x15, 0xd6, 0xf5, 0xfc, 0xf6, 0x9e, 0x15, 0x45, 0x79, 0x3a, 0xf1, 0x67, 0x0c, 0xe2, 0x3b, 0xd4, 0x23, 0xa0, 0x13, 0xfa, 0x19, 0x10, 0x08, 0xfc, 0x09, 0x06, 0x19, 0xfe, 0xe2, 0x08, 0xfb, 0x30, 0xf4, 0x12, 0x01, 0xe4, 0xf9, 0xf6, 0x22, 0x0e, 0x04, 0xfe, 0x09, 0xb0, 0xfe, 0xf3, 0xf4, 0xf6, 0x03, 0xf9, 0x0b, 0x11, 0x02, 0xcc, 0xff, 0x04, 0xe3, 0x0a, 0x05, 0x0f, 0x06, 0xfd, 0x81, 0x02, 0x0e, 0x14, 0x03, 0xf4, 0xf7, 0xf1, 0x0a, 0x04, 0x06, 0xf8, 0xf6, 0xef, 0xf3, 0xf1, 0x0a, 0xe3, 0x13, 0xc8, 0x05, 0x1f, 0x05, 0x0c, 0xe7, 0xf9, 0x0e, 0xee, 0x0c, 0xb3, 0x15, 0x08, 0x0b, 0xfe, 0xe0, 0xf9, 0xf3, 0x37, 0x3c, 0x0b, 0x0e, 0x2e, 0x0e, 0xf0, 0x02, 0x00, 0xcf, 0x34, 0xd8, 0x2e, 0xfc, 0xe3, 0xf5, 0xef, 0xe9, 0xde, 0xfd, 0x02, 0xff, 0x0b, 0xdf, 0x1f, 0x97, 0xf7, 0x0b, 0x0b, 0xfb, 0x02, 0xfc, 0x09, 0xfe, 0xde, 0x15, 0x81, 0xe7, 0x00, 0x05, 0x39, 0x0e, 0x05, 0xe7, 0x2e, 0x0c, 0x04, 0xf4, 0xfc, 0x19, 0xff, 0x36, 0xac, 0x87, 0x85, 0x0a, 0x4a, 0xcd, 0x02, 0x0f, 0x60, 0x23, 0xe3, 0x1f, 0x16, 0x16, 0xe9, 0xf4, 0xe1, 0xe6, 0xee, 0x53, 0x81, 0xcd, 0x09, 0xde, 0xea, 0x08, 0xf1, 0x9d, 0x55, 0xed, 0x43, 0xf1, 0xdb, 0x35, 0x24, 0xe1, 0xff, 0xc5, 0xf2, 0x73, 0xe0, 0x23, 0xe2, 0x06, 0x46, 0x12, 0x0f, 0xdb, 0x02, 0xdd, 0x40, 0xff, 0x90, 0xe7, 0x15, 0x09, 0xf1, 0xee, 0xd7, 0xe9, 0x0b, 0xe9, 0xf2, 0xf9, 0xef, 0x1a, 0x10, 0x81, 0x0b, 0xed, 0x01, 0x1e, 0x07, 0xe7, 0xf8, 0x11, 0xff, 0xeb, 0xca, 0xfa, 0xe1, 0x21, 0xe4, 0x14, 0xf6, 0xe1, 0xf5, 0x0c, 0xe3, 0xe6, 0xfa, 0x0a, 0xe1, 0x04, 0x0d, 0x17, 0x86, 0x1c, 0x0c, 0xef, 0x01, 0x13, 0x0a, 0xd4, 0x10, 0x01, 0x01, 0xff, 0xeb, 0x07, 0xf7, 0x13, 0x0b, 0xf8, 0x0e, 0xf1, 0xe5, 0xdd, 0x10, 0xf6, 0xfd, 0xf3, 0xfb, 0x10, 0x06, 0x02, 0x04, 0xfc, 0x17, 0x4f, 0x15, 0xf4, 0xc6, 0xed, 0x3a, 0xe1, 0xe3, 0xee, 0x19, 0x3f, 0x45, 0x03, 0x39, 0x3d, 0xf6, 0x3f, 0xf2, 0xdf, 0xdb, 0xf8, 0xf9, 0x36, 0x7f, 0xd1, 0x08, 0xd4, 0x08, 0xe5, 0x01, 0x0b, 0x07, 0x45, 0xf4, 0x1c, 0xe8, 0xee, 0x15, 0x18, 0xf1, 0x29, 0xf5, 0xfd, 0xe9, 0x18, 0x12, 0xd6, 0xf2, 0xf8, 0x2f, 0xf5, 0xea, 0xe7, 0x06, 0x05, 0x00, 0xf6, 0x02, 0x35, 0xf6, 0xb9, 0xe6, 0x07, 0xfa, 0xfc, 0x25, 0x02, 0xf9, 0xdb, 0x09, 0xc2, 0xdf, 0x1e, 0xb0, 0xef, 0x81, 0x08, 0xc4, 0x30, 0x05, 0x0b, 0xb3, 0xdd, 0x11, 0x12, 0x15, 0x17, 0x06, 0x08, 0xef, 0x03, 0x00, 0xfe, 0x39, 0xf9, 0x08, 0xf9, 0xd1, 0xf7, 0xf7, 0x9e, 0xc6, 0xfc, 0xf2, 0x30, 0x1e, 0x14, 0xdd, 0xf1, 0xfc, 0xdf, 0x91, 0xc8, 0x22, 0x18, 0xea, 0x17, 0x04, 0x30, 0xb2, 0x0e, 0x14, 0x9c, 0xf8, 0xe4, 0x03, 0x1b, 0xdd, 0x17, 0x02, 0x02, 0xd6, 0x01, 0x13, 0x92, 0x0d, 0xfb, 0x0e, 0xdc, 0xf5, 0x13, 0x19, 0xfe, 0xd0, 0xf4, 0xde, 0xb0, 0x0a, 0x18, 0xf8, 0x02, 0xff, 0x05, 0x14, 0xf4, 0x0d, 0x85, 0x8e, 0x0b, 0xfb, 0xd0, 0x82, 0x08, 0x07, 0xbc, 0xad, 0x15, 0x81, 0xf5, 0x9d, 0xfe, 0x14, 0x84, 0xfd, 0xda, 0xe2, 0x10, 0x09, 0xed, 0x06, 0xfe, 0xd2, 0xc9, 0x0d, 0x01, 0xef, 0x9b, 0xee, 0xfc, 0xfa, 0x0e, 0x4a, 0x2d, 0xd8, 0x24, 0xdd, 0x16, 0x0e, 0x17, 0x44, 0x81, 0x24, 0x10, 0x0d, 0xc6, 0xd9, 0x08, 0x40, 0x13, 0x26, 0xf5, 0x1a, 0x03, 0xc6, 0xe4, 0x55, 0x1b, 0x11, 0x1a, 0x0a, 0x18, 0x07, 0x04, 0x29, 0x06, 0x2a, 0xfc, 0x0e, 0x16, 0x1c, 0x27, 0xff, 0x04, 0xdf, 0x17, 0xff, 0x0a, 0xe6, 0x0b, 0x27, 0xf3, 0x2b, 0x0c, 0x08, 0x1a, 0x16, 0x17, 0x32, 0x0f, 0xf9, 0x0f, 0x0e, 0xf6, 0x28, 0xbf, 0xfc, 0xec, 0x19, 0x2d, 0x2c, 0x07, 0x13, 0x18, 0x57, 0xd1, 0x2e, 0xf3, 0x13, 0x32, 0x00, 0x04, 0xd9, 0x13, 0x51, 0xdd, 0x02, 0x0d, 0x1c, 0x09, 0x6f, 0xfc, 0x0e, 0x0c, 0x15, 0x96, 0xe6, 0x06, 0x1f, 0xf1, 0x5b, 0x28, 0xf9, 0x41, 0x17, 0xa4, 0x1e, 0x15, 0x1c, 0x18, 0x38, 0x05, 0x57, 0x24, 0x0e, 0x81, 0x45, 0x2f, 0x53, 0x1d, 0xe1, 0xf6, 0x30, 0x06, 0x2f, 0x16, 0x01, 0x57, 0xf6, 0x0b, 0x4c, 0x08, 0xee, 0x08, 0x13, 0xdd, 0x00, 0x32, 0x79, 0x26, 0x0e, 0xcf, 0xe9, 0x4f, 0x67, 0xff, 0x19, 0xce, 0x12, 0xfc, 0x1a, 0x05, 0xf3, 0xf6, 0x2e, 0x04, 0x38, 0xd8, 0x1a, 0x2d, 0x12, 0x09, 0x03, 0xe0, 0x18, 0x1e, 0xd9, 0x23, 0x02, 0x09, 0x08, 0x24, 0x17, 0xf5, 0xe2, 0x3e, 0xa4, 0x11, 0x1a, 0xfd, 0xfe, 0xeb, 0x50, 0x1b, 0xdb, 0xef, 0xc9, 0xf6, 0x01, 0x33, 0x81, 0xfd, 0xf9, 0xdd, 0x1f, 0x30, 0x03, 0xe2, 0x04, 0x13, 0x08, 0x13, 0xc9, 0x69, 0xf8, 0xd9, 0xd6, 0x0c, 0x1a, 0xe1, 0xf9, 0x06, 0x10, 0x15, 0x1a, 0x81, 0xe0, 0x2f, 0x82, 0xfa, 0xd0, 0xdd, 0x18, 0x3a, 0x27, 0x10, 0x07, 0xfe, 0x09, 0x15, 0xda, 0x35, 0xfb, 0xff, 0xed, 0xe9, 0xfc, 0xe7, 0x55, 0xee, 0xf6, 0xa4, 0x01, 0xf3, 0xe0, 0x28, 0x5f, 0x31, 0x20, 0xdc, 0xcc, 0xf6, 0x11, 0xd1, 0x00, 0x2b, 0xb6, 0x33, 0x14, 0x4c, 0xf2, 0x15, 0xe3, 0x44, 0xe2, 0x14, 0x9c, 0x1a, 0x4c, 0x30, 0x3e, 0xed, 0x73, 0x4b, 0x1f, 0xc6, 0xd2, 0x4b, 0x61, 0xd8, 0xc2, 0xf6, 0x3d, 0xfc, 0xe9, 0x32, 0x06, 0xb7, 0xf8, 0xc2, 0xe2, 0x81, 0xfd, 0x15, 0x09, 0xfe, 0xf1, 0x18, 0x18, 0x1e, 0xf2, 0xf3, 0xf4, 0xe0, 0xed, 0x20, 0x0a, 0xc4, 0xc3, 0x23, 0xc8, 0x18, 0x24, 0x1c, 0xdc, 0x14, 0x0f, 0x28, 0xe2, 0xed, 0x23, 0x09, 0xe7, 0x34, 0xa8, 0x17, 0xad, 0xf8, 0x1d, 0x03, 0x1f, 0x25, 0x08, 0xec, 0x4e, 0xab, 0x1a, 0xfa, 0xb4, 0x02, 0x17, 0xe3, 0x06, 0x05, 0x01, 0xcf, 0x17, 0x1a, 0x0c, 0x1d, 0xf3, 0xed, 0xdd, 0xd1, 0x13, 0x08, 0x81, 0x21, 0xd3, 0xc5, 0xf1, 0x70, 0xec, 0xf3, 0x3a, 0xfc, 0x0f, 0x20, 0xfd, 0x21, 0xa0, 0x0a, 0x07, 0xee, 0xe0, 0xd5, 0xf4, 0x05, 0xfc, 0xce, 0xde, 0x01, 0x11, 0x28, 0xf6, 0xec, 0x01, 0x7f, 0xff, 0x52, 0xe7, 0xd8, 0xf4, 0xd1, 0xbe, 0x0f, 0xf1, 0x40, 0x23, 0x37, 0x2d, 0xcb, 0x6a, 0xf0, 0xd7, 0xe8, 0x8f, 0x09, 0xd9, 0xfb, 0x6b, 0x05, 0xe7, 0x10, 0xf1, 0x51, 0x35, 0x2e, 0xf4, 0xda, 0x36, 0x10, 0xfb, 0xc1, 0xf9, 0x8c, 0xb3, 0x1e, 0x23, 0xe4, 0x0c, 0xc4, 0x5b, 0x05, 0x9f, 0x4e, 0xcf, 0xa8, 0xd6, 0xed, 0x0f, 0xee, 0x50, 0x1b, 0x39, 0x1c, 0xb4, 0xf7, 0x1a, 0x11, 0x1c, 0x18, 0x3a, 0x0c, 0xff, 0xf8, 0x1c, 0x08, 0xdf, 0xe9, 0x09, 0x1e, 0x06, 0x3c, 0xe5, 0xea, 0x0a, 0x10, 0xf0, 0x12, 0x31, 0x20, 0x0a, 0x05, 0x5b, 0x1e, 0xfd, 0x03, 0xff, 0xff, 0x02, 0x18, 0xf1, 0x1f, 0xf7, 0xf5, 0x06, 0x21, 0x2e, 0x7f, 0xf9, 0x0a, 0x0a, 0xfe, 0x3a, 0xf4, 0xf5, 0x0b, 0x0e, 0x0f, 0x0e, 0xfe, 0x06, 0x41, 0x12, 0x19, 0x2c, 0xef, 0x08, 0x1d, 0x0a, 0x33, 0x12, 0x26, 0xa2, 0xed, 0xaf, 0xee, 0x8f, 0xd6, 0xe0, 0x0a, 0x9e, 0xe9, 0xa6, 0xa1, 0x4b, 0x20, 0x1d, 0x08, 0xd3, 0x6d, 0xa1, 0xea, 0xc4, 0xe8, 0xe5, 0xea, 0x1d, 0xe2, 0xf5, 0x51, 0x1a, 0xcd, 0x01, 0x2d, 0x0c, 0xfc, 0xf3, 0xed, 0xb6, 0xea, 0x42, 0x05, 0x16, 0xd6, 0xed, 0xf4, 0x20, 0x02, 0xfa, 0xeb, 0x08, 0x0e, 0x8d, 0xea, 0xeb, 0x45, 0x0d, 0x37, 0x81, 0xd8, 0xdc, 0x33, 0x0c, 0x18, 0xf3, 0x1a, 0xd9, 0x1a, 0x06, 0xfd, 0xc8, 0xe9, 0x12, 0x20, 0x0e, 0x06, 0x03, 0x3c, 0xf9, 0x05, 0xcd, 0xde, 0xfc, 0xec, 0xf3, 0x3d, 0x02, 0x0a, 0x3b, 0x25, 0x44, 0x23, 0x33, 0x28, 0xfd, 0x1e, 0xe4, 0x12, 0x04, 0xd3, 0x06, 0x2f, 0xfd, 0x6b, 0xf4, 0xe5, 0x24, 0x01, 0x7f, 0x07, 0x00, 0x1a, 0xeb, 0xfb, 0x4b, 0x20, 0x08, 0x01, 0x22, 0x02, 0x1c, 0xff, 0xf2, 0x08, 0xe6, 0x20, 0xe2, 0x28, 0xe9, 0x04, 0xf2, 0xe8, 0xab, 0xf6, 0xeb, 0x13, 0xf2, 0xca, 0x11, 0x1d, 0xe1, 0x2c, 0xfa, 0x06, 0x16, 0x09, 0xf4, 0x9f, 0xa0, 0x95, 0xf3, 0x04, 0x02, 0x23, 0xce, 0xe7, 0x21, 0x12, 0x07, 0xf5, 0xbd, 0xae, 0xeb, 0xc0, 0xe2, 0x0f, 0x02, 0xbe, 0x99, 0xf8, 0x96, 0xbc, 0x82, 0x26, 0x1e, 0x81, 0xfc, 0x0a, 0xd3, 0xfe, 0x28, 0x01, 0xe2, 0x0b, 0xc3, 0xf7, 0x03, 0xfa, 0xfe, 0xa2, 0x03, 0xfc, 0xfb, 0xf8, 0xe9, 0xfd, 0x17, 0xb0, 0x15, 0x27, 0xfc, 0x29, 0x12, 0x10, 0x09, 0xe8, 0xf8, 0x0d, 0xef, 0x01, 0x17, 0x1d, 0xf6, 0x00, 0xf9, 0xfb, 0xf7, 0xe0, 0x08, 0x0d, 0x03, 0xfd, 0xec, 0xf4, 0x02, 0x16, 0xa8, 0x0d, 0x0e, 0x17, 0x1d, 0x12, 0x07, 0x0d, 0x38, 0x13, 0x0e, 0x0f, 0xf9, 0xff, 0x1d, 0x24, 0x14, 0x07, 0xea, 0x81, 0xcd, 0x04, 0x10, 0xfb, 0x13, 0x06, 0x20, 0x0d, 0x0c, 0xc6, 0x1b, 0x0f, 0x17, 0x65, 0xbe, 0x00, 0x08, 0x1f, 0x2b, 0x25, 0xfe, 0x26, 0xf8, 0x2b, 0xb9, 0xca, 0xe0, 0xbd, 0x99, 0xef, 0x04, 0xb2, 0x26, 0x1e, 0x23, 0xbb, 0x34, 0xd6, 0xf9, 0x0a, 0xc7, 0xf8, 0x17, 0xdf, 0x03, 0x12, 0xd9, 0xd7, 0xe2, 0xfa, 0x11, 0x0c, 0xfe, 0xfd, 0xad, 0xf9, 0xf7, 0x08, 0x15, 0x3f, 0x25, 0xec, 0x23, 0x07, 0x25, 0xb1, 0xca, 0x1c, 0xc4, 0x10, 0x27, 0x81, 0xf3, 0xcc, 0x12, 0xfe, 0xff, 0xff, 0x04, 0x00, 0x00, 0x00, 0x80, 0x00, 0x00, 0x00, 0x15, 0xf4, 0xff, 0xff, 0xc6, 0x05, 0x00, 0x00, 0x29, 0x03, 0x00, 0x00, 0xc8, 0x0c, 0x00, 0x00, 0x1e, 0x02, 0x00, 0x00, 0xbc, 0x07, 0x00, 0x00, 0xc5, 0x0d, 0x00, 0x00, 0xe6, 0xfc, 0xff, 0xff, 0x8a, 0xfe, 0xff, 0xff, 0x2d, 0x01, 0x00, 0x00, 0x18, 0x04, 0x00, 0x00, 0xd3, 0x01, 0x00, 0x00, 0x18, 0x0a, 0x00, 0x00, 0x46, 0xfe, 0xff, 0xff, 0xb3, 0x07, 0x00, 0x00, 0x8a, 0x09, 0x00, 0x00, 0x31, 0xf6, 0xff, 0xff, 0x59, 0x0d, 0x00, 0x00, 0xb1, 0x0a, 0x00, 0x00, 0xb1, 0xfa, 0xff, 0xff, 0x2e, 0xf5, 0xff, 0xff, 0xc0, 0xfc, 0xff, 0xff, 0xc0, 0x02, 0x00, 0x00, 0x84, 0xf4, 0xff, 0xff, 0x71, 0x15, 0x00, 0x00, 0xbf, 0xf7, 0xff, 0xff, 0xd6, 0xfd, 0xff, 0xff, 0x4f, 0xfc, 0xff, 0xff, 0x8e, 0xfa, 0xff, 0xff, 0x2b, 0x09, 0x00, 0x00, 0xda, 0x01, 0x00, 0x00, 0x8e, 0xfd, 0xff, 0xff, 0x9e, 0xfe, 0xff, 0xff, 0x04, 0x00, 0x00, 0x00, 0xa0, 0x00, 0x00, 0x00, 0x6f, 0x34, 0xe9, 0xc2, 0xb9, 0x81, 0xc8, 0x6b, 0x8d, 0xf3, 0xbc, 0x29, 0x20, 0x58, 0x62, 0xf7, 0x34, 0x0d, 0x9e, 0x17, 0x27, 0x2c, 0x3c, 0x1a, 0xf1, 0x33, 0x39, 0xfc, 0x0e, 0x93, 0x0a, 0x47, 0x6e, 0x3c, 0x16, 0xb8, 0xb5, 0x81, 0xd8, 0x76, 0x9b, 0x14, 0xc0, 0x2d, 0x1c, 0x40, 0x64, 0xe4, 0x3a, 0x04, 0x9f, 0x20, 0x29, 0x20, 0x3a, 0x23, 0x0f, 0x37, 0x24, 0x0a, 0x12, 0xa5, 0x10, 0x3c, 0x63, 0x38, 0xf0, 0xd5, 0xbb, 0x81, 0xcc, 0x5a, 0xb2, 0xd0, 0xc8, 0x25, 0x4f, 0x4c, 0x48, 0x41, 0x2f, 0xf2, 0x8b, 0x14, 0x20, 0x1d, 0x39, 0x13, 0xdf, 0x33, 0xe2, 0xcd, 0x11, 0xb0, 0x03, 0x32, 0xf1, 0xe2, 0x8f, 0xcb, 0xe7, 0xd2, 0xa9, 0xf5, 0xde, 0xb5, 0xb6, 0xb2, 0x81, 0xd4, 0xd1, 0xcc, 0xdd, 0x9b, 0xb2, 0xce, 0xc3, 0xea, 0xc4, 0xfe, 0xa4, 0xf3, 0xb1, 0xfe, 0xb6, 0xce, 0xaa, 0xea, 0xc2, 0xae, 0xf8, 0x3d, 0x75, 0x49, 0x33, 0xc1, 0x6d, 0xfd, 0x46, 0x9b, 0x0a, 0x91, 0xb3, 0x81, 0x98, 0x31, 0x3b, 0xcc, 0xc4, 0xab, 0xa4, 0xb0, 0x13, 0x9b, 0xf6, 0xef, 0x96, 0x34, 0x85, 0xa6, 0x4a, 0xff, 0xff, 0xff, 0x04, 0x00, 0x00, 0x00, 0x14, 0x00, 0x00, 0x00, 0xe3, 0xff, 0xff, 0xff, 0x06, 0xfb, 0xff, 0xff, 0x0f, 0x01, 0x00, 0x00, 0x91, 0xf7, 0xff, 0xff, 0xa1, 0x02, 0x00, 0x00, 0x38, 0xff, 0xff, 0xff, 0x3c, 0xff, 0xff, 0xff, 0x0f, 0x00, 0x00, 0x00, 0x4d, 0x4c, 0x49, 0x52, 0x20, 0x43, 0x6f, 0x6e, 0x76, 0x65, 0x72, 0x74, 0x65, 0x64, 0x2e, 0x00, 0x01, 0x00, 0x00, 0x00, 0x14, 0x00, 0x00, 0x00, 0x00, 0x00, 0x0e, 0x00, 0x18, 0x00, 0x14, 0x00, 0x10, 0x00, 0x0c, 0x00, 0x08, 0x00, 0x04, 0x00, 0x0e, 0x00, 0x00, 0x00, 0x14, 0x00, 0x00, 0x00, 0x1c, 0x00, 0x00, 0x00, 0x28, 0x01, 0x00, 0x00, 0x2c, 0x01, 0x00, 0x00, 0x30, 0x01, 0x00, 0x00, 0x04, 0x00, 0x00, 0x00, 0x6d, 0x61, 0x69, 0x6e, 0x00, 0x00, 0x00, 0x00, 0x04, 0x00, 0x00, 0x00, 0xd0, 0x00, 0x00, 0x00, 0x88, 0x00, 0x00, 0x00, 0x50, 0x00, 0x00, 0x00, 0x14, 0x00, 0x00, 0x00, 0x00, 0x00, 0x0e, 0x00, 0x1a, 0x00, 0x14, 0x00, 0x10, 0x00, 0x0c, 0x00, 0x0b, 0x00, 0x04, 0x00, 0x0e, 0x00, 0x00, 0x00, 0x1c, 0x00, 0x00, 0x00, 0x00, 0x00, 0x00, 0x09, 0x1c, 0x00, 0x00, 0x00, 0x20, 0x00, 0x00, 0x00, 0x01, 0x00, 0x00, 0x00, 0x00, 0x00, 0x06, 0x00, 0x08, 0x00, 0x04, 0x00, 0x06, 0x00, 0x00, 0x00, 0x00, 0x00, 0x80, 0x3f, 0x01, 0x00, 0x00, 0x00, 0x0a, 0x00, 0x00, 0x00, 0x01, 0x00, 0x00, 0x00, 0x09, 0x00, 0x00, 0x00, 0x96, 0xff, 0xff, 0xff, 0x14, 0x00, 0x00, 0x00, 0x00, 0x00, 0x00, 0x08, 0x10, 0x00, 0x00, 0x00, 0x14, 0x00, 0x00, 0x00, 0x04, 0x00, 0x04, 0x00, 0x04, 0x00, 0x00, 0x00, 0x01, 0x00, 0x00, 0x00, 0x09, 0x00, 0x00, 0x00, 0x03, 0x00, 0x00, 0x00, 0x08, 0x00, 0x00, 0x00, 0x02, 0x00, 0x00, 0x00, 0x01, 0x00, 0x00, 0x00, 0xca, 0xff, 0xff, 0xff, 0x10, 0x00, 0x00, 0x00, 0x00, 0x00, 0x00, 0x08, 0x10, 0x00, 0x00, 0x00, 0x14, 0x00, 0x00, 0x00, 0xba, 0xff, 0xff, 0xff, 0x00, 0x00, 0x00, 0x01, 0x01, 0x00, 0x00, 0x00, 0x08, 0x00, 0x00, 0x00, 0x03, 0x00, 0x00, 0x00, 0x07, 0x00, 0x00, 0x00, 0x04, 0x00, 0x00, 0x00, 0x03, 0x00, 0x00, 0x00, 0x00, 0x00, 0x0e, 0x00, 0x16, 0x00, 0x00, 0x00, 0x10, 0x00, 0x0c, 0x00, 0x0b, 0x00, 0x04, 0x00, 0x0e, 0x00, 0x00, 0x00, 0x18, 0x00, 0x00, 0x00, 0x00, 0x00, 0x00, 0x08, 0x18, 0x00, 0x00, 0x00, 0x1c, 0x00, 0x00, 0x00, 0x00, 0x00, 0x06, 0x00, 0x08, 0x00, 0x07, 0x00, 0x06, 0x00, 0x00, 0x00, 0x00, 0x00, 0x00, 0x01, 0x01, 0x00, 0x00, 0x00, 0x07, 0x00, 0x00, 0x00, 0x03, 0x00, 0x00, 0x00, 0x00, 0x00, 0x00, 0x00, 0x06, 0x00, 0x00, 0x00, 0x05, 0x00, 0x00, 0x00, 0x01, 0x00, 0x00, 0x00, 0x0a, 0x00, 0x00, 0x00, 0x01, 0x00, 0x00, 0x00, 0x00, 0x00, 0x00, 0x00, 0x0b, 0x00, 0x00, 0x00, 0xc8, 0x0e, 0x00, 0x00, 0x10, 0x0e, 0x00, 0x00, 0x54, 0x0d, 0x00, 0x00, 0x58, 0x0b, 0x00, 0x00, 0x74, 0x09, 0x00, 0x00, 0xf8, 0x05, 0x00, 0x00, 0x94, 0x02, 0x00, 0x00, 0xe0, 0x01, 0x00, 0x00, 0x24, 0x01, 0x00, 0x00, 0x80, 0x00, 0x00, 0x00, 0x04, 0x00, 0x00, 0x00, 0x7a, 0xf1, 0xff, 0xff, 0x00, 0x00, 0x00, 0x01, 0x18, 0x00, 0x00, 0x00, 0x20, 0x00, 0x00, 0x00, 0x3c, 0x00, 0x00, 0x00, 0x0b, 0x00, 0x00, 0x00, 0x00, 0x00, 0x00, 0x09, 0x50, 0x00, 0x00, 0x00, 0x02, 0x00, 0x00, 0x00, 0xff, 0xff, 0xff, 0xff, 0x05, 0x00, 0x00, 0x00, 0x64, 0xf1, 0xff, 0xff, 0x08, 0x00, 0x00, 0x00, 0x10, 0x00, 0x00, 0x00, 0x01, 0x00, 0x00, 0x00, 0x80, 0xff, 0xff, 0xff, 0xff, 0xff, 0xff, 0xff, 0x01, 0x00, 0x00, 0x00, 0x00, 0x00, 0x80, 0x3b, 0x1b, 0x00, 0x00, 0x00, 0x53, 0x74, 0x61, 0x74, 0x65, 0x66, 0x75, 0x6c, 0x50, 0x61, 0x72, 0x74, 0x69, 0x74, 0x69, 0x6f, 0x6e, 0x65, 0x64, 0x43, 0x61, 0x6c, 0x6c, 0x5f, 0x31, 0x3a, 0x30, 0x00, 0x02, 0x00, 0x00, 0x00, 0x01, 0x00, 0x00, 0x00, 0x05, 0x00, 0x00, 0x00, 0xf2, 0xf1, 0xff, 0xff, 0x00, 0x00, 0x00, 0x01, 0x18, 0x00, 0x00, 0x00, 0x20, 0x00, 0x00, 0x00, 0x40, 0x00, 0x00, 0x00, 0x0a, 0x00, 0x00, 0x00, 0x00, 0x00, 0x00, 0x09, 0x78, 0x00, 0x00, 0x00, 0x02, 0x00, 0x00, 0x00, 0xff, 0xff, 0xff, 0xff, 0x05, 0x00, 0x00, 0x00, 0xdc, 0xf1, 0xff, 0xff, 0x08, 0x00, 0x00, 0x00, 0x14, 0x00, 0x00, 0x00, 0x01, 0x00, 0x00, 0x00, 0x71, 0x00, 0x00, 0x00, 0x00, 0x00, 0x00, 0x00, 0x00, 0x00, 0x00, 0x00, 0x01, 0x00, 0x00, 0x00, 0xe1, 0x57, 0xbe, 0x3e, 0x3c, 0x00, 0x00, 0x00, 0x66, 0x75, 0x6e, 0x63, 0x74, 0x69, 0x6f, 0x6e, 0x61, 0x6c, 0x5f, 0x31, 0x2f, 0x64, 0x65, 0x6e, 0x73, 0x65, 0x5f, 0x32, 0x5f, 0x31, 0x2f, 0x4d, 0x61, 0x74, 0x4d, 0x75, 0x6c, 0x3b, 0x66, 0x75, 0x6e, 0x63, 0x74, 0x69, 0x6f, 0x6e, 0x61, 0x6c, 0x5f, 0x31, 0x2f, 0x64, 0x65, 0x6e, 0x73, 0x65, 0x5f, 0x32, 0x5f, 0x31, 0x2f, 0x42, 0x69, 0x61, 0x73, 0x41, 0x64, 0x64, 0x00, 0x00, 0x00, 0x00, 0x02, 0x00, 0x00, 0x00, 0x01, 0x00, 0x00, 0x00, 0x05, 0x00, 0x00, 0x00, 0x92, 0xf2, 0xff, 0xff, 0x00, 0x00, 0x00, 0x01, 0x18, 0x00, 0x00, 0x00, 0x20, 0x00, 0x00, 0x00, 0x3c, 0x00, 0x00, 0x00, 0x09, 0x00, 0x00, 0x00, 0x00, 0x00, 0x00, 0x09, 0x90, 0x00, 0x00, 0x00, 0x02, 0x00, 0x00, 0x00, 0xff, 0xff, 0xff, 0xff, 0x20, 0x00, 0x00, 0x00, 0x7c, 0xf2, 0xff, 0xff, 0x08, 0x00, 0x00, 0x00, 0x10, 0x00, 0x00, 0x00, 0x01, 0x00, 0x00, 0x00, 0x80, 0xff, 0xff, 0xff, 0xff, 0xff, 0xff, 0xff, 0x01, 0x00, 0x00, 0x00, 0xbb, 0xed, 0x5a, 0x3d, 0x58, 0x00, 0x00, 0x00, 0x66, 0x75, 0x6e, 0x63, 0x74, 0x69, 0x6f, 0x6e, 0x61, 0x6c, 0x5f, 0x31, 0x2f, 0x64, 0x65, 0x6e, 0x73, 0x65, 0x5f, 0x31, 0x5f, 0x32, 0x2f, 0x4d, 0x61, 0x74, 0x4d, 0x75, 0x6c, 0x3b, 0x66, 0x75, 0x6e, 0x63, 0x74, 0x69, 0x6f, 0x6e, 0x61, 0x6c, 0x5f, 0x31, 0x2f, 0x64, 0x65, 0x6e, 0x73, 0x65, 0x5f, 0x31, 0x5f, 0x32, 0x2f, 0x52, 0x65, 0x6c, 0x75, 0x3b, 0x66, 0x75, 0x6e, 0x63, 0x74, 0x69, 0x6f, 0x6e, 0x61, 0x6c, 0x5f, 0x31, 0x2f, 0x64, 0x65, 0x6e, 0x73, 0x65, 0x5f, 0x31, 0x5f, 0x32, 0x2f, 0x42, 0x69, 0x61, 0x73, 0x41, 0x64, 0x64, 0x00, 0x00, 0x00, 0x00, 0x02, 0x00, 0x00, 0x00, 0x01, 0x00, 0x00, 0x00, 0x20, 0x00, 0x00, 0x00, 0x4a, 0xf3, 0xff, 0xff, 0x00, 0x00, 0x00, 0x01, 0x18, 0x00, 0x00, 0x00, 0x20, 0x00, 0x00, 0x00, 0x3c, 0x00, 0x00, 0x00, 0x08, 0x00, 0x00, 0x00, 0x00, 0x00, 0x00, 0x09, 0x88, 0x00, 0x00, 0x00, 0x02, 0x00, 0x00, 0x00, 0xff, 0xff, 0xff, 0xff, 0x40, 0x00, 0x00, 0x00, 0x34, 0xf3, 0xff, 0xff, 0x08, 0x00, 0x00, 0x00, 0x10, 0x00, 0x00, 0x00, 0x01, 0x00, 0x00, 0x00, 0x80, 0xff, 0xff, 0xff, 0xff, 0xff, 0xff, 0xff, 0x01, 0x00, 0x00, 0x00, 0xaf, 0xd2, 0x8c, 0x3c, 0x52, 0x00, 0x00, 0x00, 0x66, 0x75, 0x6e, 0x63, 0x74, 0x69, 0x6f, 0x6e, 0x61, 0x6c, 0x5f, 0x31, 0x2f, 0x64, 0x65, 0x6e, 0x73, 0x65, 0x5f, 0x31, 0x2f, 0x4d, 0x61, 0x74, 0x4d, 0x75, 0x6c, 0x3b, 0x66, 0x75, 0x6e, 0x63, 0x74, 0x69, 0x6f, 0x6e, 0x61, 0x6c, 0x5f, 0x31, 0x2f, 0x64, 0x65, 0x6e, 0x73, 0x65, 0x5f, 0x31, 0x2f, 0x52, 0x65, 0x6c, 0x75, 0x3b, 0x66, 0x75, 0x6e, 0x63, 0x74, 0x69, 0x6f, 0x6e, 0x61, 0x6c, 0x5f, 0x31, 0x2f, 0x64, 0x65, 0x6e, 0x73, 0x65, 0x5f, 0x31, 0x2f, 0x42, 0x69, 0x61, 0x73, 0x41, 0x64, 0x64, 0x00, 0x00, 0x02, 0x00, 0x00, 0x00, 0x01, 0x00, 0x00, 0x00, 0x40, 0x00, 0x00, 0x00, 0xae, 0xf4, 0xff, 0xff, 0x00, 0x00, 0x00, 0x01, 0x14, 0x00, 0x00, 0x00, 0x28, 0x03, 0x00, 0x00, 0x07, 0x00, 0x00, 0x00, 0x00, 0x00, 0x00, 0x09, 0x3c, 0x03, 0x00, 0x00, 0xd4, 0xf3, 0xff, 0xff, 0x08, 0x00, 0x00, 0x00, 0x0c, 0x02, 0x00, 0x00, 0x40, 0x00, 0x00, 0x00, 0x00, 0x00, 0x00, 0x00, 0x00, 0x00, 0x00, 0x00, 0x00, 0x00, 0x00, 0x00, 0x00, 0x00, 0x00, 0x00, 0x00, 0x00, 0x00, 0x00, 0x00, 0x00, 0x00, 0x00, 0x00, 0x00, 0x00, 0x00, 0x00, 0x00, 0x00, 0x00, 0x00, 0x00, 0x00, 0x00, 0x00, 0x00, 0x00, 0x00, 0x00, 0x00, 0x00, 0x00, 0x00, 0x00, 0x00, 0x00, 0x00, 0x00, 0x00, 0x00, 0x00, 0x00, 0x00, 0x00, 0x00, 0x00, 0x00, 0x00, 0x00, 0x00, 0x00, 0x00, 0x00, 0x00, 0x00, 0x00, 0x00, 0x00, 0x00, 0x00, 0x00, 0x00, 0x00, 0x00, 0x00, 0x00, 0x00, 0x00, 0x00, 0x00, 0x00, 0x00, 0x00, 0x00, 0x00, 0x00, 0x00, 0x00, 0x00, 0x00, 0x00, 0x00, 0x00, 0x00, 0x00, 0x00, 0x00, 0x00, 0x00, 0x00, 0x00, 0x00, 0x00, 0x00, 0x00, 0x00, 0x00, 0x00, 0x00, 0x00, 0x00, 0x00, 0x00, 0x00, 0x00, 0x00, 0x00, 0x00, 0x00, 0x00, 0x00, 0x00, 0x00, 0x00, 0x00, 0x00, 0x00, 0x00, 0x00, 0x00, 0x00, 0x00, 0x00, 0x00, 0x00, 0x00, 0x00, 0x00, 0x00, 0x00, 0x00, 0x00, 0x00, 0x00, 0x00, 0x00, 0x00, 0x00, 0x00, 0x00, 0x00, 0x00, 0x00, 0x00, 0x00, 0x00, 0x00, 0x00, 0x00, 0x00, 0x00, 0x00, 0x00, 0x00, 0x00, 0x00, 0x00, 0x00, 0x00, 0x00, 0x00, 0x00, 0x00, 0x00, 0x00, 0x00, 0x00, 0x00, 0x00, 0x00, 0x00, 0x00, 0x00, 0x00, 0x00, 0x00, 0x00, 0x00, 0x00, 0x00, 0x00, 0x00, 0x00, 0x00, 0x00, 0x00, 0x00, 0x00, 0x00, 0x00, 0x00, 0x00, 0x00, 0x00, 0x00, 0x00, 0x00, 0x00, 0x00, 0x00, 0x00, 0x00, 0x00, 0x00, 0x00, 0x00, 0x00, 0x00, 0x00, 0x00, 0x00, 0x00, 0x00, 0x00, 0x00, 0x00, 0x00, 0x00, 0x00, 0x00, 0x00, 0x00, 0x00, 0x00, 0x00, 0x00, 0x00, 0x00, 0x00, 0x00, 0x00, 0x00, 0x00, 0x00, 0x00, 0x00, 0x00, 0x00, 0x00, 0x00, 0x00, 0x00, 0x00, 0x00, 0x00, 0x00, 0x00, 0x00, 0x00, 0x00, 0x00, 0x00, 0x00, 0x00, 0x00, 0x00, 0x00, 0x00, 0x00, 0x00, 0x00, 0x00, 0x00, 0x00, 0x00, 0x00, 0x00, 0x00, 0x00, 0x00, 0x00, 0x00, 0x00, 0x00, 0x00, 0x00, 0x00, 0x00, 0x00, 0x00, 0x00, 0x00, 0x00, 0x00, 0x00, 0x00, 0x00, 0x00, 0x00, 0x00, 0x00, 0x00, 0x00, 0x00, 0x00, 0x00, 0x00, 0x00, 0x00, 0x00, 0x00, 0x00, 0x00, 0x00, 0x00, 0x00, 0x00, 0x00, 0x00, 0x00, 0x00, 0x00, 0x00, 0x00, 0x00, 0x00, 0x00, 0x00, 0x00, 0x00, 0x00, 0x00, 0x00, 0x00, 0x00, 0x00, 0x00, 0x00, 0x00, 0x00, 0x00, 0x00, 0x00, 0x00, 0x00, 0x00, 0x00, 0x00, 0x00, 0x00, 0x00, 0x00, 0x00, 0x00, 0x00, 0x00, 0x00, 0x00, 0x00, 0x00, 0x00, 0x00, 0x00, 0x00, 0x00, 0x00, 0x00, 0x00, 0x00, 0x00, 0x00, 0x00, 0x00, 0x00, 0x00, 0x00, 0x00, 0x00, 0x00, 0x00, 0x00, 0x00, 0x00, 0x00, 0x00, 0x00, 0x00, 0x00, 0x00, 0x00, 0x00, 0x00, 0x00, 0x00, 0x00, 0x00, 0x00, 0x00, 0x00, 0x00, 0x00, 0x00, 0x00, 0x00, 0x00, 0x00, 0x00, 0x00, 0x00, 0x00, 0x00, 0x00, 0x00, 0x00, 0x00, 0x00, 0x00, 0x00, 0x00, 0x00, 0x00, 0x00, 0x00, 0x00, 0x00, 0x00, 0x00, 0x00, 0x00, 0x00, 0x00, 0x00, 0x00, 0x00, 0x00, 0x00, 0x00, 0x00, 0x00, 0x00, 0x00, 0x00, 0x00, 0x00, 0x00, 0x00, 0x00, 0x00, 0x00, 0x00, 0x00, 0x00, 0x00, 0x00, 0x00, 0x00, 0x00, 0x00, 0x00, 0x00, 0x00, 0x00, 0x00, 0x00, 0x00, 0x00, 0x00, 0x00, 0x00, 0x00, 0x00, 0x00, 0x00, 0x00, 0x00, 0x00, 0x00, 0x00, 0x00, 0x00, 0x00, 0x00, 0x00, 0x00, 0x00, 0x00, 0x00, 0x00, 0x00, 0x00, 0x00, 0x00, 0x00, 0x00, 0x00, 0x00, 0x00, 0x00, 0x00, 0x00, 0x00, 0x00, 0x00, 0x00, 0x00, 0x00, 0x00, 0x00, 0x00, 0x00, 0x00, 0x00, 0x00, 0x00, 0x40, 0x00, 0x00, 0x00, 0x51, 0x16, 0x62, 0x3b, 0xe1, 0xe9, 0xa2, 0x3b, 0x6a, 0x00, 0xa2, 0x3b, 0x22, 0xd8, 0xad, 0x3b, 0x4e, 0xa2, 0xe2, 0x3b, 0xa6, 0xb0, 0x26, 0x3c, 0x7d, 0xf4, 0xae, 0x3b, 0x25, 0x49, 0x99, 0x3b, 0x27, 0xd4, 0x93, 0x3b, 0x17, 0x9e, 0xdd, 0x3b, 0x8c, 0xd5, 0xa7, 0x3b, 0x13, 0x20, 0x61, 0x3b, 0xe9, 0xd2, 0x7f, 0x3b, 0xcb, 0x5f, 0xdb, 0x3b, 0xf9, 0x0e, 0xc5, 0x3b, 0xc1, 0xa7, 0xf2, 0x3b, 0xc3, 0x4e, 0x58, 0x3b, 0x99, 0x13, 0x97, 0x3b, 0x4b, 0xeb, 0x80, 0x3b, 0x1f, 0x5a, 0x82, 0x3b, 0x2f, 0x9a, 0x88, 0x3b, 0xc9, 0x99, 0x95, 0x3b, 0xdd, 0x73, 0x99, 0x3b, 0x1f, 0x24, 0x98, 0x3b, 0x2b, 0x71, 0xa7, 0x3b, 0x87, 0x5f, 0xa8, 0x3b, 0xda, 0x93, 0x5b, 0x3b, 0x5d, 0xf5, 0xa7, 0x3b, 0x00, 0x1d, 0xbe, 0x3b, 0x1d, 0xa4, 0xd5, 0x3b, 0x79, 0xfc, 0xaf, 0x3b, 0x92, 0x65, 0xab, 0x3b, 0x63, 0xcf, 0x79, 0x3b, 0x50, 0x33, 0xed, 0x3b, 0xea, 0x5c, 0x2c, 0x3c, 0x51, 0x21, 0x4c, 0x3b, 0xd2, 0xf1, 0xc5, 0x3b, 0x2b, 0x73, 0x9f, 0x3b, 0x10, 0xda, 0x60, 0x3b, 0x01, 0x0a, 0xce, 0x3b, 0xcd, 0x34, 0xb5, 0x3b, 0x6e, 0x27, 0x08, 0x3c, 0x2c, 0x53, 0xa1, 0x3b, 0x44, 0x9f, 0x9b, 0x3b, 0xd9, 0x7a, 0x86, 0x3b, 0xb5, 0x91, 0xd0, 0x3b, 0x9b, 0xd0, 0x8d, 0x3b, 0x97, 0x26, 0xad, 0x3b, 0x62, 0xc9, 0x87, 0x3b, 0xd7, 0x0f, 0xa6, 0x3b, 0xe5, 0xab, 0xd4, 0x3b, 0x39, 0x36, 0xc5, 0x3b, 0xdb, 0xc1, 0xaa, 0x3b, 0x60, 0x5a, 0xb0, 0x3b, 0x14, 0xe0, 0x7e, 0x3b, 0xa6, 0xdd, 0x73, 0x3b, 0x7d, 0x52, 0xd2, 0x3b, 0xc7, 0xf8, 0x47, 0x3b, 0xe4, 0x8d, 0xce, 0x3b, 0xd6, 0x40, 0x85, 0x3b, 0x87, 0xa0, 0x8a, 0x3b, 0x2a, 0xf0, 0xaa, 0x3b, 0x49, 0xaf, 0x50, 0x3b, 0x9a, 0x39, 0x4f, 0x3b, 0x1b, 0x00, 0x00, 0x00, 0x66, 0x75, 0x6e, 0x63, 0x74, 0x69, 0x6f, 0x6e, 0x61, 0x6c, 0x5f, 0x31, 0x2f, 0x64, 0x65, 0x6e, 0x73, 0x65, 0x5f, 0x31, 0x2f, 0x4d, 0x61, 0x74, 0x4d, 0x75, 0x6c, 0x00, 0x02, 0x00, 0x00, 0x00, 0x40, 0x00, 0x00, 0x00, 0x3a, 0x00, 0x00, 0x00, 0x0e, 0xf8, 0xff, 0xff, 0x00, 0x00, 0x00, 0x01, 0x14, 0x00, 0x00, 0x00, 0x28, 0x03, 0x00, 0x00, 0x06, 0x00, 0x00, 0x00, 0x00, 0x00, 0x00, 0x02, 0x58, 0x03, 0x00, 0x00, 0x34, 0xf7, 0xff, 0xff, 0x08, 0x00, 0x00, 0x00, 0x0c, 0x02, 0x00, 0x00, 0x40, 0x00, 0x00, 0x00, 0x00, 0x00, 0x00, 0x00, 0x00, 0x00, 0x00, 0x00, 0x00, 0x00, 0x00, 0x00, 0x00, 0x00, 0x00, 0x00, 0x00, 0x00, 0x00, 0x00, 0x00, 0x00, 0x00, 0x00, 0x00, 0x00, 0x00, 0x00, 0x00, 0x00, 0x00, 0x00, 0x00, 0x00, 0x00, 0x00, 0x00, 0x00, 0x00, 0x00, 0x00, 0x00, 0x00, 0x00, 0x00, 0x00, 0x00, 0x00, 0x00, 0x00, 0x00, 0x00, 0x00, 0x00, 0x00, 0x00, 0x00, 0x00, 0x00, 0x00, 0x00, 0x00, 0x00, 0x00, 0x00, 0x00, 0x00, 0x00, 0x00, 0x00, 0x00, 0x00, 0x00, 0x00, 0x00, 0x00, 0x00, 0x00, 0x00, 0x00, 0x00, 0x00, 0x00, 0x00, 0x00, 0x00, 0x00, 0x00, 0x00, 0x00, 0x00, 0x00, 0x00, 0x00, 0x00, 0x00, 0x00, 0x00, 0x00, 0x00, 0x00, 0x00, 0x00, 0x00, 0x00, 0x00, 0x00, 0x00, 0x00, 0x00, 0x00, 0x00, 0x00, 0x00, 0x00, 0x00, 0x00, 0x00, 0x00, 0x00, 0x00, 0x00, 0x00, 0x00, 0x00, 0x00, 0x00, 0x00, 0x00, 0x00, 0x00, 0x00, 0x00, 0x00, 0x00, 0x00, 0x00, 0x00, 0x00, 0x00, 0x00, 0x00, 0x00, 0x00, 0x00, 0x00, 0x00, 0x00, 0x00, 0x00, 0x00, 0x00, 0x00, 0x00, 0x00, 0x00, 0x00, 0x00, 0x00, 0x00, 0x00, 0x00, 0x00, 0x00, 0x00, 0x00, 0x00, 0x00, 0x00, 0x00, 0x00, 0x00, 0x00, 0x00, 0x00, 0x00, 0x00, 0x00, 0x00, 0x00, 0x00, 0x00, 0x00, 0x00, 0x00, 0x00, 0x00, 0x00, 0x00, 0x00, 0x00, 0x00, 0x00, 0x00, 0x00, 0x00, 0x00, 0x00, 0x00, 0x00, 0x00, 0x00, 0x00, 0x00, 0x00, 0x00, 0x00, 0x00, 0x00, 0x00, 0x00, 0x00, 0x00, 0x00, 0x00, 0x00, 0x00, 0x00, 0x00, 0x00, 0x00, 0x00, 0x00, 0x00, 0x00, 0x00, 0x00, 0x00, 0x00, 0x00, 0x00, 0x00, 0x00, 0x00, 0x00, 0x00, 0x00, 0x00, 0x00, 0x00, 0x00, 0x00, 0x00, 0x00, 0x00, 0x00, 0x00, 0x00, 0x00, 0x00, 0x00, 0x00, 0x00, 0x00, 0x00, 0x00, 0x00, 0x00, 0x00, 0x00, 0x00, 0x00, 0x00, 0x00, 0x00, 0x00, 0x00, 0x00, 0x00, 0x00, 0x00, 0x00, 0x00, 0x00, 0x00, 0x00, 0x00, 0x00, 0x00, 0x00, 0x00, 0x00, 0x00, 0x00, 0x00, 0x00, 0x00, 0x00, 0x00, 0x00, 0x00, 0x00, 0x00, 0x00, 0x00, 0x00, 0x00, 0x00, 0x00, 0x00, 0x00, 0x00, 0x00, 0x00, 0x00, 0x00, 0x00, 0x00, 0x00, 0x00, 0x00, 0x00, 0x00, 0x00, 0x00, 0x00, 0x00, 0x00, 0x00, 0x00, 0x00, 0x00, 0x00, 0x00, 0x00, 0x00, 0x00, 0x00, 0x00, 0x00, 0x00, 0x00, 0x00, 0x00, 0x00, 0x00, 0x00, 0x00, 0x00, 0x00, 0x00, 0x00, 0x00, 0x00, 0x00, 0x00, 0x00, 0x00, 0x00, 0x00, 0x00, 0x00, 0x00, 0x00, 0x00, 0x00, 0x00, 0x00, 0x00, 0x00, 0x00, 0x00, 0x00, 0x00, 0x00, 0x00, 0x00, 0x00, 0x00, 0x00, 0x00, 0x00, 0x00, 0x00, 0x00, 0x00, 0x00, 0x00, 0x00, 0x00, 0x00, 0x00, 0x00, 0x00, 0x00, 0x00, 0x00, 0x00, 0x00, 0x00, 0x00, 0x00, 0x00, 0x00, 0x00, 0x00, 0x00, 0x00, 0x00, 0x00, 0x00, 0x00, 0x00, 0x00, 0x00, 0x00, 0x00, 0x00, 0x00, 0x00, 0x00, 0x00, 0x00, 0x00, 0x00, 0x00, 0x00, 0x00, 0x00, 0x00, 0x00, 0x00, 0x00, 0x00, 0x00, 0x00, 0x00, 0x00, 0x00, 0x00, 0x00, 0x00, 0x00, 0x00, 0x00, 0x00, 0x00, 0x00, 0x00, 0x00, 0x00, 0x00, 0x00, 0x00, 0x00, 0x00, 0x00, 0x00, 0x00, 0x00, 0x00, 0x00, 0x00, 0x00, 0x00, 0x00, 0x00, 0x00, 0x00, 0x00, 0x00, 0x00, 0x00, 0x00, 0x00, 0x00, 0x00, 0x00, 0x00, 0x00, 0x00, 0x00, 0x00, 0x00, 0x00, 0x00, 0x00, 0x00, 0x00, 0x00, 0x00, 0x00, 0x00, 0x00, 0x00, 0x00, 0x00, 0x00, 0x00, 0x00, 0x00, 0x00, 0x00, 0x00, 0x00, 0x00, 0x00, 0x00, 0x00, 0x00, 0x00, 0x00, 0x00, 0x00, 0x00, 0x00, 0x00, 0x00, 0x00, 0x00, 0x00, 0x00, 0x00, 0x00, 0x00, 0x00, 0x40, 0x00, 0x00, 0x00, 0x3c, 0x32, 0x19, 0x39, 0xa5, 0xc7, 0x5c, 0x39, 0x41, 0x8b, 0x5b, 0x39, 0xd4, 0x97, 0x6b, 0x39, 0x17, 0x91, 0x99, 0x39, 0xcf, 0xe5, 0xe1, 0x39, 0x2f, 0x19, 0x6d, 0x39, 0x72, 0xbb, 0x4f, 0x39, 0x40, 0x56, 0x48, 0x39, 0xe9, 0x2a, 0x96, 0x39, 0xbe, 0x72, 0x63, 0x39, 0x62, 0x8b, 0x18, 0x39, 0x83, 0x58, 0x2d, 0x39, 0xc4, 0xa5, 0x94, 0x39, 0xc5, 0x86, 0x85, 0x39, 0x3a, 0x6c, 0xa4, 0x39, 0xd5, 0x91, 0x12, 0x39, 0x05, 0xbd, 0x4c, 0x39, 0xef, 0xb5, 0x2e, 0x39, 0x0f, 0xa7, 0x30, 0x39, 0x75, 0x1f, 0x39, 0x39, 0x03, 0xbd, 0x4a, 0x39, 0x57, 0xf5, 0x4f, 0x39, 0x58, 0x2e, 0x4e, 0x39, 0xb6, 0xea, 0x62, 0x39, 0xbc, 0x2d, 0x64, 0x39, 0x0b, 0xc9, 0x14, 0x39, 0xdc, 0x9d, 0x63, 0x39, 0x05, 0xd2, 0x80, 0x39, 0x45, 0xc3, 0x90, 0x39, 0xf0, 0x7e, 0x6e, 0x39, 0xb7, 0x46, 0x68, 0x39, 0x56, 0x45, 0x29, 0x39, 0x00, 0xba, 0xa0, 0x39, 0xea, 0x95, 0xe9, 0x39, 0x75, 0x51, 0x0a, 0x39, 0x7b, 0x20, 0x86, 0x39, 0xfa, 0x15, 0x58, 0x39, 0xf1, 0x5b, 0x18, 0x39, 0x97, 0x9c, 0x8b, 0x39, 0xec, 0x91, 0x75, 0x39, 0xf1, 0x83, 0xb8, 0x39, 0x7a, 0xa0, 0x5a, 0x39, 0x05, 0xe6, 0x52, 0x39, 0x21, 0x3f, 0x36, 0x39, 0x79, 0x53, 0x8d, 0x39, 0xdc, 0x2f, 0x40, 0x39, 0x39, 0xa7, 0x6a, 0x39, 0x7e, 0x04, 0x38, 0x39, 0xe1, 0x0b, 0x61, 0x39, 0x14, 0x1b, 0x90, 0x39, 0x5e, 0xa1, 0x85, 0x39, 0xd9, 0x68, 0x67, 0x39, 0x31, 0xfe, 0x6e, 0x39, 0xf9, 0xb3, 0x2c, 0x39, 0x35, 0x3e, 0x25, 0x39, 0x91, 0x83, 0x8e, 0x39, 0x20, 0x80, 0x07, 0x39, 0xf5, 0xf5, 0x8b, 0x39, 0x95, 0x95, 0x34, 0x39, 0xea, 0xdd, 0x3b, 0x39, 0x9b, 0xa7, 0x67, 0x39, 0x84, 0x67, 0x0d, 0x39, 0x4f, 0x6a, 0x0c, 0x39, 0x36, 0x00, 0x00, 0x00, 0x66, 0x75, 0x6e, 0x63, 0x74, 0x69, 0x6f, 0x6e, 0x61, 0x6c, 0x5f, 0x31, 0x2f, 0x64, 0x65, 0x6e, 0x73, 0x65, 0x5f, 0x31, 0x2f, 0x52, 0x65, 0x6c, 0x75, 0x3b, 0x66, 0x75, 0x6e, 0x63, 0x74, 0x69, 0x6f, 0x6e, 0x61, 0x6c, 0x5f, 0x31, 0x2f, 0x64, 0x65, 0x6e, 0x73, 0x65, 0x5f, 0x31, 0x2f, 0x42, 0x69, 0x61, 0x73, 0x41, 0x64, 0x64, 0x00, 0x00, 0x01, 0x00, 0x00, 0x00, 0x40, 0x00, 0x00, 0x00, 0x86, 0xfb, 0xff, 0xff, 0x00, 0x00, 0x00, 0x01, 0x14, 0x00, 0x00, 0x00, 0xa4, 0x01, 0x00, 0x00, 0x05, 0x00, 0x00, 0x00, 0x00, 0x00, 0x00, 0x09, 0xbc, 0x01, 0x00, 0x00, 0xac, 0xfa, 0xff, 0xff, 0x08, 0x00, 0x00, 0x00, 0x08, 0x01, 0x00, 0x00, 0x20, 0x00, 0x00, 0x00, 0x00, 0x00, 0x00, 0x00, 0x00, 0x00, 0x00, 0x00, 0x00, 0x00, 0x00, 0x00, 0x00, 0x00, 0x00, 0x00, 0x00, 0x00, 0x00, 0x00, 0x00, 0x00, 0x00, 0x00, 0x00, 0x00, 0x00, 0x00, 0x00, 0x00, 0x00, 0x00, 0x00, 0x00, 0x00, 0x00, 0x00, 0x00, 0x00, 0x00, 0x00, 0x00, 0x00, 0x00, 0x00, 0x00, 0x00, 0x00, 0x00, 0x00, 0x00, 0x00, 0x00, 0x00, 0x00, 0x00, 0x00, 0x00, 0x00, 0x00, 0x00, 0x00, 0x00, 0x00, 0x00, 0x00, 0x00, 0x00, 0x00, 0x00, 0x00, 0x00, 0x00, 0x00, 0x00, 0x00, 0x00, 0x00, 0x00, 0x00, 0x00, 0x00, 0x00, 0x00, 0x00, 0x00, 0x00, 0x00, 0x00, 0x00, 0x00, 0x00, 0x00, 0x00, 0x00, 0x00, 0x00, 0x00, 0x00, 0x00, 0x00, 0x00, 0x00, 0x00, 0x00, 0x00, 0x00, 0x00, 0x00, 0x00, 0x00, 0x00, 0x00, 0x00, 0x00, 0x00, 0x00, 0x00, 0x00, 0x00, 0x00, 0x00, 0x00, 0x00, 0x00, 0x00, 0x00, 0x00, 0x00, 0x00, 0x00, 0x00, 0x00, 0x00, 0x00, 0x00, 0x00, 0x00, 0x00, 0x00, 0x00, 0x00, 0x00, 0x00, 0x00, 0x00, 0x00, 0x00, 0x00, 0x00, 0x00, 0x00, 0x00, 0x00, 0x00, 0x00, 0x00, 0x00, 0x00, 0x00, 0x00, 0x00, 0x00, 0x00, 0x00, 0x00, 0x00, 0x00, 0x00, 0x00, 0x00, 0x00, 0x00, 0x00, 0x00, 0x00, 0x00, 0x00, 0x00, 0x00, 0x00, 0x00, 0x00, 0x00, 0x00, 0x00, 0x00, 0x00, 0x00, 0x00, 0x00, 0x00, 0x00, 0x00, 0x00, 0x00, 0x00, 0x00, 0x00, 0x00, 0x00, 0x00, 0x00, 0x00, 0x00, 0x00, 0x00, 0x00, 0x00, 0x00, 0x00, 0x00, 0x00, 0x00, 0x00, 0x00, 0x00, 0x00, 0x00, 0x00, 0x00, 0x00, 0x00, 0x00, 0x00, 0x00, 0x00, 0x00, 0x00, 0x00, 0x00, 0x00, 0x00, 0x00, 0x00, 0x00, 0x00, 0x00, 0x00, 0x00, 0x00, 0x00, 0x00, 0x00, 0x00, 0x00, 0x00, 0x00, 0x00, 0x00, 0x00, 0x00, 0x00, 0x00, 0x00, 0x00, 0x20, 0x00, 0x00, 0x00, 0x2a, 0x19, 0x09, 0x3c, 0x0e, 0x0d, 0x17, 0x3c, 0x8a, 0xf0, 0xc3, 0x3b, 0xfb, 0x15, 0x19, 0x3c, 0xb8, 0x30, 0x88, 0x3c, 0xa3, 0x9b, 0x4c, 0x3c, 0x28, 0xda, 0x1a, 0x3c, 0xcd, 0x98, 0x07, 0x3c, 0xaa, 0x4a, 0x83, 0x3c, 0x54, 0x3e, 0x59, 0x3c, 0x71, 0x96, 0x5f, 0x3c, 0x1e, 0xd9, 0xa9, 0x3b, 0x46, 0xf4, 0x27, 0x3c, 0x6c, 0x81, 0x58, 0x3c, 0xdf, 0x4c, 0xcd, 0x3b, 0xed, 0x35, 0x3f, 0x3c, 0xa4, 0x34, 0x0b, 0x3c, 0x6f, 0x47, 0x0c, 0x3c, 0x32, 0xe5, 0x2d, 0x3c, 0x66, 0xa4, 0x2d, 0x3c, 0x2a, 0x38, 0xf1, 0x3b, 0x3d, 0x3b, 0xf1, 0x3b, 0x81, 0xc9, 0x02, 0x3c, 0xce, 0x55, 0xcb, 0x3b, 0x88, 0x44, 0xbe, 0x3b, 0x56, 0x11, 0xc3, 0x3b, 0xd0, 0x73, 0xdd, 0x3b, 0x4a, 0x4f, 0x93, 0x3b, 0x06, 0x16, 0x17, 0x3c, 0x35, 0xce, 0x27, 0x3c, 0x28, 0x1f, 0x31, 0x3c, 0xfc, 0x2e, 0x0d, 0x3c, 0x1d, 0x00, 0x00, 0x00, 0x66, 0x75, 0x6e, 0x63, 0x74, 0x69, 0x6f, 0x6e, 0x61, 0x6c, 0x5f, 0x31, 0x2f, 0x64, 0x65, 0x6e, 0x73, 0x65, 0x5f, 0x31, 0x5f, 0x32, 0x2f, 0x4d, 0x61, 0x74, 0x4d, 0x75, 0x6c, 0x00, 0x00, 0x00, 0x02, 0x00, 0x00, 0x00, 0x20, 0x00, 0x00, 0x00, 0x40, 0x00, 0x00, 0x00, 0x66, 0xfd, 0xff, 0xff, 0x00, 0x00, 0x00, 0x01, 0x14, 0x00, 0x00, 0x00, 0xa4, 0x01, 0x00, 0x00, 0x04, 0x00, 0x00, 0x00, 0x00, 0x00, 0x00, 0x02, 0xd8, 0x01, 0x00, 0x00, 0x8c, 0xfc, 0xff, 0xff, 0x08, 0x00, 0x00, 0x00, 0x08, 0x01, 0x00, 0x00, 0x20, 0x00, 0x00, 0x00, 0x00, 0x00, 0x00, 0x00, 0x00, 0x00, 0x00, 0x00, 0x00, 0x00, 0x00, 0x00, 0x00, 0x00, 0x00, 0x00, 0x00, 0x00, 0x00, 0x00, 0x00, 0x00, 0x00, 0x00, 0x00, 0x00, 0x00, 0x00, 0x00, 0x00, 0x00, 0x00, 0x00, 0x00, 0x00, 0x00, 0x00, 0x00, 0x00, 0x00, 0x00, 0x00, 0x00, 0x00, 0x00, 0x00, 0x00, 0x00, 0x00, 0x00, 0x00, 0x00, 0x00, 0x00, 0x00, 0x00, 0x00, 0x00, 0x00, 0x00, 0x00, 0x00, 0x00, 0x00, 0x00, 0x00, 0x00, 0x00, 0x00, 0x00, 0x00, 0x00, 0x00, 0x00, 0x00, 0x00, 0x00, 0x00, 0x00, 0x00, 0x00, 0x00, 0x00, 0x00, 0x00, 0x00, 0x00, 0x00, 0x00, 0x00, 0x00, 0x00, 0x00, 0x00, 0x00, 0x00, 0x00, 0x00, 0x00, 0x00, 0x00, 0x00, 0x00, 0x00, 0x00, 0x00, 0x00, 0x00, 0x00, 0x00, 0x00, 0x00, 0x00, 0x00, 0x00, 0x00, 0x00, 0x00, 0x00, 0x00, 0x00, 0x00, 0x00, 0x00, 0x00, 0x00, 0x00, 0x00, 0x00, 0x00, 0x00, 0x00, 0x00, 0x00, 0x00, 0x00, 0x00, 0x00, 0x00, 0x00, 0x00, 0x00, 0x00, 0x00, 0x00, 0x00, 0x00, 0x00, 0x00, 0x00, 0x00, 0x00, 0x00, 0x00, 0x00, 0x00, 0x00, 0x00, 0x00, 0x00, 0x00, 0x00, 0x00, 0x00, 0x00, 0x00, 0x00, 0x00, 0x00, 0x00, 0x00, 0x00, 0x00, 0x00, 0x00, 0x00, 0x00, 0x00, 0x00, 0x00, 0x00, 0x00, 0x00, 0x00, 0x00, 0x00, 0x00, 0x00, 0x00, 0x00, 0x00, 0x00, 0x00, 0x00, 0x00, 0x00, 0x00, 0x00, 0x00, 0x00, 0x00, 0x00, 0x00, 0x00, 0x00, 0x00, 0x00, 0x00, 0x00, 0x00, 0x00, 0x00, 0x00, 0x00, 0x00, 0x00, 0x00, 0x00, 0x00, 0x00, 0x00, 0x00, 0x00, 0x00, 0x00, 0x00, 0x00, 0x00, 0x00, 0x00, 0x00, 0x00, 0x00, 0x00, 0x00, 0x00, 0x00, 0x00, 0x00, 0x00, 0x00, 0x00, 0x00, 0x00, 0x00, 0x00, 0x00, 0x00, 0x00, 0x00, 0x00, 0x00, 0x00, 0x00, 0x00, 0x00, 0x20, 0x00, 0x00, 0x00, 0x2f, 0xd5, 0x16, 0x39, 0xe7, 0x2e, 0x26, 0x39, 0x99, 0x91, 0xd7, 0x38, 0x04, 0x6c, 0x28, 0x39, 0x73, 0xd5, 0x95, 0x39, 0x01, 0x1b, 0x61, 0x39, 0x7d, 0x5d, 0x2a, 0x39, 0x50, 0x2e, 0x15, 0x39, 0xc4, 0x71, 0x90, 0x39, 0xbf, 0x01, 0x6f, 0x39, 0x90, 0xfc, 0x75, 0x39, 0x09, 0xdd, 0xba, 0x38, 0x9f, 0xc7, 0x38, 0x39, 0xea, 0x31, 0x6e, 0x39, 0xff, 0xdd, 0xe1, 0x38, 0xb5, 0x5d, 0x52, 0x39, 0xb4, 0x26, 0x19, 0x39, 0x06, 0x55, 0x1a, 0x39, 0xe8, 0x50, 0x3f, 0x39, 0x9f, 0x09, 0x3f, 0x39, 0x3c, 0xb1, 0x04, 0x39, 0xed, 0xb2, 0x04, 0x39, 0xaa, 0xe3, 0x0f, 0x39, 0x88, 0xb4, 0xdf, 0x38, 0x21, 0x54, 0xd1, 0x38, 0x09, 0x9c, 0xd6, 0x38, 0x2c, 0xa3, 0xf3, 0x38, 0x30, 0x11, 0xa2, 0x38, 0xc5, 0x38, 0x26, 0x39, 0xbe, 0x9d, 0x38, 0x39, 0x9d, 0xdd, 0x42, 0x39, 0xc6, 0x53, 0x1b, 0x39, 0x3a, 0x00, 0x00, 0x00, 0x66, 0x75, 0x6e, 0x63, 0x74, 0x69, 0x6f, 0x6e, 0x61, 0x6c, 0x5f, 0x31, 0x2f, 0x64, 0x65, 0x6e, 0x73, 0x65, 0x5f, 0x31, 0x5f, 0x32, 0x2f, 0x52, 0x65, 0x6c, 0x75, 0x3b, 0x66, 0x75, 0x6e, 0x63, 0x74, 0x69, 0x6f, 0x6e, 0x61, 0x6c, 0x5f, 0x31, 0x2f, 0x64, 0x65, 0x6e, 0x73, 0x65, 0x5f, 0x31, 0x5f, 0x32, 0x2f, 0x42, 0x69, 0x61, 0x73, 0x41, 0x64, 0x64, 0x00, 0x00, 0x01, 0x00, 0x00, 0x00, 0x20, 0x00, 0x00, 0x00, 0x5e, 0xff, 0xff, 0xff, 0x00, 0x00, 0x00, 0x01, 0x14, 0x00, 0x00, 0x00, 0x64, 0x00, 0x00, 0x00, 0x03, 0x00, 0x00, 0x00, 0x00, 0x00, 0x00, 0x09, 0x7c, 0x00, 0x00, 0x00, 0x84, 0xfe, 0xff, 0xff, 0x08, 0x00, 0x00, 0x00, 0x34, 0x00, 0x00, 0x00, 0x05, 0x00, 0x00, 0x00, 0x00, 0x00, 0x00, 0x00, 0x00, 0x00, 0x00, 0x00, 0x00, 0x00, 0x00, 0x00, 0x00, 0x00, 0x00, 0x00, 0x00, 0x00, 0x00, 0x00, 0x00, 0x00, 0x00, 0x00, 0x00, 0x00, 0x00, 0x00, 0x00, 0x00, 0x00, 0x00, 0x00, 0x00, 0x00, 0x00, 0x00, 0x00, 0x00, 0x00, 0x00, 0x00, 0x00, 0x00, 0x05, 0x00, 0x00, 0x00, 0xe3, 0x8d, 0x8c, 0x3b, 0x95, 0xf1, 0x96, 0x3b, 0x18, 0x52, 0x92, 0x3b, 0x2a, 0xd9, 0x02, 0x3d, 0xe6, 0xd4, 0x79, 0x3c, 0x1d, 0x00, 0x00, 0x00, 0x66, 0x75, 0x6e, 0x63, 0x74, 0x69, 0x6f, 0x6e, 0x61, 0x6c, 0x5f, 0x31, 0x2f, 0x64, 0x65, 0x6e, 0x73, 0x65, 0x5f, 0x32, 0x5f, 0x31, 0x2f, 0x4d, 0x61, 0x74, 0x4d, 0x75, 0x6c, 0x00, 0x00, 0x00, 0x02, 0x00, 0x00, 0x00, 0x05, 0x00, 0x00, 0x00, 0x20, 0x00, 0x00, 0x00, 0x00, 0x00, 0x16, 0x00, 0x1c, 0x00, 0x18, 0x00, 0x17, 0x00, 0x10, 0x00, 0x0c, 0x00, 0x08, 0x00, 0x00, 0x00, 0x00, 0x00, 0x00, 0x00, 0x07, 0x00, 0x16, 0x00, 0x00, 0x00, 0x00, 0x00, 0x00, 0x01, 0x14, 0x00, 0x00, 0x00, 0x64, 0x00, 0x00, 0x00, 0x02, 0x00, 0x00, 0x00, 0x00, 0x00, 0x00, 0x02, 0x7c, 0x00, 0x00, 0x00, 0x3c, 0xff, 0xff, 0xff, 0x08, 0x00, 0x00, 0x00, 0x34, 0x00, 0x00, 0x00, 0x05, 0x00, 0x00, 0x00, 0x00, 0x00, 0x00, 0x00, 0x00, 0x00, 0x00, 0x00, 0x00, 0x00, 0x00, 0x00, 0x00, 0x00, 0x00, 0x00, 0x00, 0x00, 0x00, 0x00, 0x00, 0x00, 0x00, 0x00, 0x00, 0x00, 0x00, 0x00, 0x00, 0x00, 0x00, 0x00, 0x00, 0x00, 0x00, 0x00, 0x00, 0x00, 0x00, 0x00, 0x00, 0x00, 0x00, 0x00, 0x05, 0x00, 0x00, 0x00, 0xb3, 0x66, 0x70, 0x39, 0xe5, 0x15, 0x81, 0x39, 0x93, 0x43, 0x7a, 0x39, 0xe1, 0xcc, 0xdf, 0x3a, 0x4c, 0xa7, 0x55, 0x3a, 0x1e, 0x00, 0x00, 0x00, 0x66, 0x75, 0x6e, 0x63, 0x74, 0x69, 0x6f, 0x6e, 0x61, 0x6c, 0x5f, 0x31, 0x2f, 0x64, 0x65, 0x6e, 0x73, 0x65, 0x5f, 0x32, 0x5f, 0x31, 0x2f, 0x42, 0x69, 0x61, 0x73, 0x41, 0x64, 0x64, 0x00, 0x00, 0x01, 0x00, 0x00, 0x00, 0x05, 0x00, 0x00, 0x00, 0x00, 0x00, 0x16, 0x00, 0x20, 0x00, 0x1c, 0x00, 0x1b, 0x00, 0x14, 0x00, 0x10, 0x00, 0x0c, 0x00, 0x00, 0x00, 0x00, 0x00, 0x08, 0x00, 0x07, 0x00, 0x16, 0x00, 0x00, 0x00, 0x00, 0x00, 0x00, 0x01, 0x18, 0x00, 0x00, 0x00, 0x2c, 0x00, 0x00, 0x00, 0x48, 0x00, 0x00, 0x00, 0x01, 0x00, 0x00, 0x00, 0x00, 0x00, 0x00, 0x09, 0x60, 0x00, 0x00, 0x00, 0x02, 0x00, 0x00, 0x00, 0xff, 0xff, 0xff, 0xff, 0x3a, 0x00, 0x00, 0x00, 0x0c, 0x00, 0x0c, 0x00, 0x00, 0x00, 0x00, 0x00, 0x08, 0x00, 0x04, 0x00, 0x0c, 0x00, 0x00, 0x00, 0x08, 0x00, 0x00, 0x00, 0x10, 0x00, 0x00, 0x00, 0x01, 0x00, 0x00, 0x00, 0x0d, 0x00, 0x00, 0x00, 0x00, 0x00, 0x00, 0x00, 0x01, 0x00, 0x00, 0x00, 0x11, 0x77, 0x2d, 0x3d, 0x1e, 0x00, 0x00, 0x00, 0x73, 0x65, 0x72, 0x76, 0x69, 0x6e, 0x67, 0x5f, 0x64, 0x65, 0x66, 0x61, 0x75, 0x6c, 0x74, 0x5f, 0x6b, 0x65, 0x72, 0x61, 0x73, 0x5f, 0x74, 0x65, 0x6e, 0x73, 0x6f, 0x72, 0x3a, 0x30, 0x00, 0x00, 0x02, 0x00, 0x00, 0x00, 0x01, 0x00, 0x00, 0x00, 0x3a, 0x00, 0x00, 0x00, 0x02, 0x00, 0x00, 0x00, 0x24, 0x00, 0x00, 0x00, 0x04, 0x00, 0x00, 0x00, 0xf0, 0xff, 0xff, 0xff, 0x19, 0x00, 0x00, 0x00, 0x02, 0x00, 0x00, 0x00, 0x00, 0x00, 0x00, 0x19, 0x0c, 0x00, 0x10, 0x00, 0x0f, 0x00, 0x00, 0x00, 0x08, 0x00, 0x04, 0x00, 0x0c, 0x00, 0x00, 0x00, 0x09, 0x00, 0x00, 0x00, 0x04, 0x00, 0x00, 0x00, 0x00, 0x00, 0x00, 0x09
};
