#pragma once
// Auto-generated TFLite model (11248 bytes)
const unsigned int model_data_len = 11248;
alignas(8) const unsigned char model_data[] = {
  0x20, 0x00, 0x00, 0x00, 0x54, 0x46, 0x4c, 0x33, 0x00, 0x00, 0x00, 0x00, 0x14, 0x00, 0x20, 0x00, 0x1c, 0x00, 0x18, 0x00, 0x14, 0x00, 0x10, 0x00, 0x0c, 0x00, 0x00, 0x00, 0x08, 0x00, 0x04, 0x00, 0x14, 0x00, 0x00, 0x00, 0x1c, 0x00, 0x00, 0x00, 0x98, 0x00, 0x00, 0x00, 0xf0, 0x00, 0x00, 0x00, 0xc4, 0x1a, 0x00, 0x00, 0xd4, 0x1a, 0x00, 0x00, 0x80, 0x2b, 0x00, 0x00, 0x03, 0x00, 0x00, 0x00, 0x01, 0x00, 0x00, 0x00, 0x10, 0x00, 0x00, 0x00, 0x00, 0x00, 0x0a, 0x00, 0x10, 0x00, 0x0c, 0x00, 0x08, 0x00, 0x04, 0x00, 0x0a, 0x00, 0x00, 0x00, 0x0c, 0x00, 0x00, 0x00, 0x1c, 0x00, 0x00, 0x00, 0x3c, 0x00, 0x00, 0x00, 0x0f, 0x00, 0x00, 0x00, 0x73, 0x65, 0x72, 0x76, 0x69, 0x6e, 0x67, 0x5f, 0x64, 0x65, 0x66, 0x61, 0x75, 0x6c, 0x74, 0x00, 0x01, 0x00, 0x00, 0x00, 0x04, 0x00, 0x00, 0x00, 0x90, 0xff, 0xff, 0xff, 0x0a, 0x00, 0x00, 0x00, 0x04, 0x00, 0x00, 0x00, 0x08, 0x00, 0x00, 0x00, 0x6f, 0x75, 0x74, 0x70, 0x75, 0x74, 0x5f, 0x30, 0x00, 0x00, 0x00, 0x00, 0x01, 0x00, 0x00, 0x00, 0x04, 0x00, 0x00, 0x00, 0x22, 0xe5, 0xff, 0xff, 0x04, 0x00, 0x00, 0x00, 0x0c, 0x00, 0x00, 0x00, 0x6b, 0x65, 0x72, 0x61, 0x73, 0x5f, 0x74, 0x65, 0x6e, 0x73, 0x6f, 0x72, 0x00, 0x00, 0x00, 0x00, 0x02, 0x00, 0x00, 0x00, 0x34, 0x00, 0x00, 0x00, 0x04, 0x00, 0x00, 0x00, 0xdc, 0xff, 0xff, 0xff, 0x0d, 0x00, 0x00, 0x00, 0x04, 0x00, 0x00, 0x00, 0x13, 0x00, 0x00, 0x00, 0x43, 0x4f, 0x4e, 0x56, 0x45, 0x52, 0x53, 0x49, 0x4f, 0x4e, 0x5f, 0x4d, 0x45, 0x54, 0x41, 0x44, 0x41, 0x54, 0x41, 0x00, 0x08, 0x00, 0x0c, 0x00, 0x08, 0x00, 0x04, 0x00, 0x08, 0x00, 0x00, 0x00, 0x0c, 0x00, 0x00, 0x00, 0x04, 0x00, 0x00, 0x00, 0x13, 0x00, 0x00, 0x00, 0x6d, 0x69, 0x6e, 0x5f, 0x72, 0x75, 0x6e, 0x74, 0x69, 0x6d, 0x65, 0x5f, 0x76, 0x65, 0x72, 0x73, 0x69, 0x6f, 0x6e, 0x00, 0x0e, 0x00, 0x00, 0x00, 0xd0, 0x19, 0x00, 0x00, 0xc8, 0x19, 0x00, 0x00, 0xa4, 0x19, 0x00, 0x00, 0xf4, 0x18, 0x00, 0x00, 0x64, 0x18, 0x00, 0x00, 0x54, 0x10, 0x00, 0x00, 0x44, 0x0f, 0x00, 0x00, 0xb4, 0x00, 0x00, 0x00, 0xac, 0x00, 0x00, 0x00, 0xa4, 0x00, 0x00, 0x00, 0x9c, 0x00, 0x00, 0x00, 0x94, 0x00, 0x00, 0x00, 0x74, 0x00, 0x00, 0x00, 0x04, 0x00, 0x00, 0x00, 0xd6, 0xe5, 0xff, 0xff, 0x04, 0x00, 0x00, 0x00, 0x60, 0x00, 0x00, 0x00, 0x0c, 0x00, 0x00, 0x00, 0x08, 0x00, 0x0e, 0x00, 0x08, 0x00, 0x04, 0x00, 0x08, 0x00, 0x00, 0x00, 0x10, 0x00, 0x00, 0x00, 0x28, 0x00, 0x00, 0x00, 0x00, 0x00, 0x06, 0x00, 0x08, 0x00, 0x04, 0x00, 0x06, 0x00, 0x00, 0x00, 0x04, 0x00, 0x00, 0x00, 0x01, 0x00, 0x00, 0x00, 0xeb, 0x03, 0x00, 0x00, 0x0c, 0x00, 0x18, 0x00, 0x14, 0x00, 0x10, 0x00, 0x0c, 0x00, 0x04, 0x00, 0x0c, 0x00, 0x00, 0x00, 0xbd, 0xf8, 0xff, 0x41, 0x57, 0x87, 0x4a, 0x46, 0x02, 0x00, 0x00, 0x00, 0x02, 0x00, 0x00, 0x00, 0x04, 0x00, 0x00, 0x00, 0x06, 0x00, 0x00, 0x00, 0x32, 0x2e, 0x32, 0x31, 0x2e, 0x30, 0x00, 0x00, 0x42, 0xe6, 0xff, 0xff, 0x04, 0x00, 0x00, 0x00, 0x10, 0x00, 0x00, 0x00, 0x31, 0x2e, 0x31, 0x34, 0x2e, 0x30, 0x00, 0x00, 0x00, 0x00, 0x00, 0x00, 0x00, 0x00, 0x00, 0x00, 0x2c, 0xe6, 0xff, 0xff, 0x30, 0xe6, 0xff, 0xff, 0x34, 0xe6, 0xff, 0xff, 0x38, 0xe6, 0xff, 0xff, 0x6e, 0xe6, 0xff, 0xff, 0x04, 0x00, 0x00, 0x00, 0x80, 0x0e, 0x00, 0x00, 0x01, 0xff, 0x31, 0x14, 0xec, 0x13, 0xd2, 0xf1, 0xee, 0x10, 0xdd, 0xf0, 0x05, 0x06, 0x29, 0x20, 0x17, 0xf7, 0x27, 0x2e, 0xea, 0xe5, 0x0f, 0x2d, 0x07, 0x02, 0xdb, 0xe3, 0x3a, 0x33, 0xd6, 0xda, 0x0f, 0xe4, 0x27, 0xce, 0xd7, 0xef, 0xee, 0xc2, 0xb9, 0xcd, 0xc5, 0x30, 0x0c, 0x31, 0x0d, 0xe6, 0x05, 0x3f, 0x81, 0x22, 0x41, 0x11, 0xca, 0x1f, 0xfd, 0xe0, 0x56, 0xdd, 0x0b, 0x47, 0xda, 0x20, 0xf0, 0x1e, 0xec, 0xca, 0x1b, 0xb7, 0xe7, 0x33, 0x1d, 0xf2, 0x3d, 0xb5, 0xea, 0x05, 0xfd, 0xc8, 0xb4, 0xd0, 0x1c, 0x13, 0x39, 0xb6, 0x1b, 0x22, 0x4b, 0xfe, 0x42, 0xc5, 0x3a, 0xac, 0xcc, 0xb8, 0xc1, 0x2e, 0xf3, 0x0c, 0x17, 0xdd, 0x00, 0x06, 0x16, 0x13, 0x01, 0x04, 0xef, 0xe8, 0x81, 0x2c, 0x22, 0x0a, 0xc0, 0xf1, 0x31, 0x27, 0x16, 0x0f, 0x36, 0x3b, 0x05, 0xc1, 0xfa, 0x13, 0x27, 0x16, 0xe7, 0x63, 0x2f, 0xe5, 0xf2, 0xce, 0xeb, 0x2b, 0xf5, 0xf4, 0xff, 0xfd, 0x0e, 0xeb, 0x01, 0x66, 0xe6, 0xd6, 0x2b, 0xb7, 0x9b, 0x11, 0x5b, 0x30, 0x2e, 0x3d, 0x0a, 0xbd, 0x6a, 0x83, 0xc5, 0x44, 0x03, 0x1d, 0x76, 0xe7, 0xa9, 0x88, 0x7f, 0x24, 0xd0, 0x43, 0xc6, 0xaf, 0x08, 0xd6, 0x6d, 0x42, 0x74, 0xe0, 0xd7, 0x30, 0xd4, 0x21, 0x09, 0x42, 0x1a, 0x11, 0x06, 0xb5, 0x2d, 0x3a, 0xfe, 0x67, 0x0b, 0xf8, 0x4b, 0x3d, 0x52, 0xdb, 0xdd, 0x34, 0x58, 0x5d, 0xad, 0xae, 0x67, 0xef, 0xd1, 0xf4, 0x12, 0x52, 0xb9, 0x0c, 0xf7, 0xec, 0x53, 0x37, 0xea, 0xb4, 0xc4, 0xc6, 0x7f, 0x32, 0x75, 0x7c, 0xdf, 0x6f, 0x70, 0xee, 0xf4, 0x13, 0x55, 0x60, 0x13, 0x4e, 0x10, 0xd3, 0x2a, 0x07, 0xea, 0xf8, 0xab, 0x2b, 0xd5, 0x41, 0xbd, 0x54, 0xd7, 0x72, 0x7f, 0xf5, 0x50, 0xb9, 0xea, 0x29, 0x19, 0x51, 0x10, 0xe1, 0x2b, 0x3f, 0x51, 0xdb, 0x0c, 0xb0, 0x02, 0x6d, 0xb9, 0x2d, 0xc0, 0x2d, 0xef, 0x0e, 0x25, 0x3a, 0x1c, 0xbc, 0xb3, 0xf3, 0x56, 0x11, 0xb7, 0x1b, 0xa4, 0xdc, 0x83, 0x64, 0xda, 0x4e, 0x33, 0x61, 0x10, 0xec, 0xc1, 0x05, 0xe3, 0x08, 0x36, 0x2e, 0x1e, 0x20, 0xe7, 0x16, 0xf8, 0xc5, 0xd1, 0xe0, 0x13, 0x10, 0x00, 0xbc, 0x1f, 0xf9, 0x32, 0xdd, 0xf4, 0x17, 0xd3, 0xf5, 0x29, 0x07, 0xd5, 0x05, 0xde, 0x1f, 0xf4, 0xfd, 0xf0, 0x11, 0x1d, 0xd4, 0xfb, 0xbb, 0x2a, 0x1d, 0x32, 0x00, 0xdc, 0x0f, 0x1f, 0xaf, 0x81, 0xd1, 0xd5, 0x55, 0x0a, 0x1e, 0xf7, 0xc0, 0x23, 0x54, 0x2d, 0x21, 0x3c, 0xaf, 0xdd, 0x14, 0xe8, 0x4f, 0x76, 0xe2, 0x0d, 0x0a, 0x08, 0x4a, 0x7a, 0xdf, 0x35, 0x44, 0xe3, 0x9c, 0x19, 0x2b, 0x34, 0x40, 0xcc, 0x78, 0xc9, 0xd6, 0xf4, 0xc3, 0x06, 0x22, 0xbe, 0xc2, 0xfe, 0xb2, 0x7f, 0x0e, 0x33, 0x22, 0xe9, 0xb1, 0xbe, 0x78, 0x4b, 0x1c, 0x32, 0xe8, 0xb2, 0x08, 0x7d, 0xe2, 0x41, 0xd3, 0x16, 0x53, 0x08, 0xf0, 0xf4, 0x13, 0xe2, 0x2f, 0x21, 0xb8, 0xc2, 0xe8, 0xbc, 0xe3, 0x5c, 0x02, 0x17, 0xdb, 0x31, 0xc3, 0xdb, 0x46, 0x05, 0xda, 0x0a, 0xdf, 0xd8, 0xcd, 0x51, 0x32, 0xa5, 0xd2, 0xfd, 0x33, 0xf1, 0xf7, 0xca, 0x7f, 0x48, 0x20, 0x39, 0xc1, 0xed, 0xe3, 0x26, 0xd5, 0x15, 0xe7, 0x0f, 0xd6, 0xc4, 0x39, 0x4e, 0x92, 0x03, 0x1e, 0xaa, 0xa8, 0x21, 0x04, 0x0e, 0xfc, 0x23, 0xca, 0xc7, 0x29, 0xd6, 0xde, 0xed, 0xf8, 0x2b, 0x94, 0x42, 0xf7, 0xb4, 0xad, 0x57, 0x12, 0x33, 0xc8, 0xe3, 0x17, 0x9c, 0xb8, 0x57, 0x2f, 0x6d, 0xea, 0x64, 0x0d, 0x47, 0xe6, 0x54, 0x12, 0xcf, 0xf6, 0x34, 0xa7, 0xe0, 0xff, 0x11, 0x09, 0x05, 0xab, 0x0c, 0xe3, 0x4e, 0xe9, 0x7f, 0x19, 0xa7, 0xcf, 0xe0, 0x07, 0xd5, 0xa1, 0x1c, 0x13, 0xfb, 0xb0, 0x29, 0x19, 0x42, 0xe7, 0x17, 0x13, 0xb1, 0xd3, 0xe9, 0x0b, 0x12, 0xfe, 0x1d, 0x44, 0x20, 0x2e, 0x17, 0x41, 0x03, 0xff, 0x44, 0x3d, 0xe6, 0x3a, 0xd7, 0x37, 0xc2, 0xc6, 0x0f, 0xd2, 0x10, 0xdf, 0xc4, 0x13, 0x30, 0x18, 0xa1, 0x44, 0xcd, 0x89, 0x3f, 0xfe, 0xbb, 0x07, 0xf6, 0xe0, 0xe1, 0x0b, 0x81, 0xcd, 0xd5, 0x76, 0x29, 0x09, 0xd4, 0xe9, 0xe4, 0xd5, 0xce, 0x25, 0x23, 0x81, 0xd6, 0xfd, 0xf4, 0xef, 0x2a, 0x0b, 0x1b, 0xcb, 0x23, 0x0f, 0xc1, 0xed, 0xfd, 0x1f, 0xe7, 0x14, 0x42, 0x2d, 0x38, 0x07, 0x08, 0xc8, 0x45, 0xb9, 0x13, 0xd9, 0x9a, 0xf1, 0x5a, 0x90, 0xd2, 0xbc, 0xc3, 0xfe, 0xf0, 0x0d, 0x28, 0x05, 0x55, 0x3c, 0x1e, 0x0f, 0x6a, 0xc4, 0x6b, 0x2e, 0x9a, 0x6f, 0x5f, 0x17, 0xbe, 0xda, 0x1b, 0xd7, 0x1b, 0x2e, 0xed, 0x13, 0x37, 0x9c, 0xaf, 0xf9, 0xc9, 0x4c, 0x51, 0xdc, 0xea, 0xc3, 0xb5, 0xbe, 0xd8, 0x46, 0x08, 0xd5, 0x37, 0x09, 0xc1, 0x24, 0x34, 0xa6, 0x0d, 0xf5, 0xcc, 0xd6, 0xed, 0x07, 0x55, 0xb6, 0xab, 0x51, 0x4b, 0xb5, 0x39, 0xb4, 0x43, 0x28, 0xc9, 0x94, 0xd5, 0x81, 0xb2, 0x96, 0x1a, 0xa4, 0x10, 0xba, 0x8a, 0x55, 0x13, 0x36, 0x1a, 0x01, 0xfd, 0x05, 0xe9, 0x35, 0xe0, 0x09, 0xe5, 0x14, 0xd5, 0xe4, 0x0d, 0x1d, 0xd5, 0x26, 0xf7, 0x13, 0xf7, 0xea, 0xf0, 0xe3, 0x00, 0x17, 0xdf, 0xff, 0x0e, 0xf6, 0x18, 0xf8, 0xfe, 0x2c, 0xdc, 0x0a, 0x0f, 0xf1, 0x06, 0xeb, 0x0e, 0x21, 0x1b, 0xf9, 0x02, 0x13, 0x12, 0xee, 0x08, 0x20, 0xeb, 0x0a, 0x81, 0x05, 0x20, 0x2c, 0x0c, 0x1a, 0x2f, 0xce, 0xc8, 0xcf, 0x57, 0x0b, 0x43, 0x21, 0x12, 0x10, 0xca, 0x37, 0x45, 0x33, 0xcd, 0x2d, 0xff, 0xe2, 0x36, 0x00, 0xf3, 0x0f, 0xdf, 0xd8, 0xdd, 0x2e, 0x06, 0xe6, 0x1b, 0x26, 0xe7, 0xf8, 0x1e, 0x9b, 0x61, 0x1a, 0x17, 0xe4, 0xfa, 0x6c, 0x05, 0x1c, 0xcf, 0xce, 0x39, 0xcc, 0xc5, 0x58, 0x16, 0x8a, 0x27, 0x08, 0x19, 0x41, 0x4d, 0x81, 0x22, 0x31, 0x56, 0xd8, 0x00, 0xb9, 0x48, 0x0e, 0xe0, 0x2d, 0x3a, 0x2d, 0xf0, 0xf7, 0x20, 0x14, 0xcc, 0xdc, 0xb5, 0x01, 0x08, 0xe8, 0x1b, 0x05, 0xbc, 0xd1, 0xd8, 0x41, 0xe2, 0xf8, 0x08, 0x32, 0x3b, 0x12, 0xf0, 0x95, 0xb1, 0xc9, 0x99, 0xd3, 0xef, 0x2a, 0xa9, 0xbf, 0x3d, 0xd9, 0x21, 0x26, 0xc3, 0xef, 0x64, 0xc6, 0x50, 0x1c, 0x81, 0x90, 0xb6, 0x2b, 0xf4, 0xf0, 0xd2, 0x4e, 0x0b, 0x68, 0x57, 0x28, 0xb9, 0x65, 0x26, 0xe9, 0xe9, 0x35, 0x93, 0x83, 0xed, 0x15, 0xec, 0x7f, 0xf6, 0xe1, 0xbc, 0x08, 0xad, 0xed, 0x95, 0xb1, 0x44, 0x68, 0x1f, 0x24, 0xb8, 0x31, 0xdf, 0x84, 0xf3, 0x15, 0xf6, 0x24, 0x02, 0xdf, 0x45, 0x15, 0x40, 0x25, 0xf5, 0xa6, 0xdc, 0xbc, 0x1b, 0x4f, 0xef, 0xb8, 0xac, 0x01, 0x23, 0x12, 0x88, 0xe2, 0xa8, 0x00, 0xe6, 0x09, 0xcc, 0xd1, 0xd3, 0xeb, 0xf2, 0xc3, 0x2c, 0xe1, 0x01, 0xd7, 0x06, 0xc8, 0x81, 0x04, 0x0d, 0x2b, 0xfb, 0xfd, 0x21, 0x0a, 0x0d, 0x0a, 0xe5, 0x14, 0xeb, 0xb1, 0x6a, 0x08, 0xab, 0x31, 0xf7, 0x16, 0x1c, 0x59, 0xc3, 0xe8, 0x13, 0x5d, 0x3b, 0x2a, 0xdd, 0x63, 0x4b, 0xde, 0x4d, 0xf5, 0x15, 0x9e, 0x7b, 0xcb, 0xdb, 0xa7, 0xf8, 0xd5, 0xc2, 0xff, 0x3a, 0x1d, 0x42, 0xe8, 0xf7, 0xe5, 0xe9, 0xf4, 0x16, 0x20, 0x06, 0x41, 0xfb, 0x2a, 0xf6, 0xd9, 0x22, 0x56, 0x22, 0x24, 0xbe, 0xe6, 0x9c, 0x2e, 0xe9, 0x2a, 0x01, 0x9a, 0xee, 0x2b, 0xed, 0xd8, 0xa5, 0x8d, 0x21, 0x2f, 0x1e, 0x14, 0x05, 0xd2, 0x23, 0xb5, 0xce, 0x1e, 0x58, 0x0e, 0xcd, 0x0f, 0xc1, 0x01, 0x81, 0x95, 0x4d, 0x69, 0xca, 0xed, 0x25, 0xae, 0x0b, 0xfa, 0x13, 0xea, 0xe2, 0xd2, 0xee, 0x06, 0x0e, 0xfb, 0xf7, 0xe8, 0x09, 0xfb, 0xe6, 0x40, 0x21, 0x33, 0xfa, 0xe8, 0x29, 0xf2, 0xe3, 0x28, 0xf3, 0x27, 0x18, 0x27, 0xea, 0xf1, 0xde, 0xf8, 0xef, 0x1c, 0x2b, 0xda, 0x1f, 0xff, 0x02, 0xe7, 0xd0, 0x03, 0xd6, 0x0a, 0x07, 0xe8, 0x28, 0x08, 0x2d, 0x12, 0x11, 0x3c, 0x27, 0x81, 0xee, 0xc8, 0xed, 0x0c, 0xd7, 0xc8, 0xe9, 0x1c, 0x0f, 0x04, 0xd5, 0x4e, 0x3f, 0x49, 0xcb, 0xe7, 0x5d, 0x5a, 0x0d, 0xf4, 0x3e, 0x00, 0x1d, 0xc9, 0x0d, 0x15, 0xeb, 0x26, 0x33, 0x0f, 0xa5, 0xff, 0x07, 0x2d, 0x50, 0x9a, 0x9c, 0x23, 0x09, 0xf3, 0x9f, 0x07, 0x3b, 0xe9, 0x5e, 0x0e, 0xb2, 0x4c, 0xde, 0xe7, 0xd9, 0x07, 0x46, 0x9a, 0x81, 0xf7, 0x41, 0x4b, 0x64, 0x99, 0xa0, 0x0f, 0x23, 0x16, 0xf9, 0x01, 0x15, 0x30, 0x39, 0x0f, 0x08, 0xd0, 0x0f, 0xdf, 0xec, 0x0b, 0x15, 0xfc, 0x08, 0xe7, 0xed, 0x34, 0xcb, 0x13, 0x20, 0xd0, 0x34, 0xff, 0x06, 0x0f, 0x15, 0xdf, 0x0c, 0xa0, 0x0e, 0x0b, 0x0d, 0x30, 0xfe, 0x2b, 0x05, 0xee, 0xf2, 0xf8, 0xf8, 0xfe, 0xd7, 0xff, 0xc5, 0xce, 0x25, 0xc6, 0xdb, 0x5d, 0xd3, 0x81, 0x2c, 0x35, 0xed, 0xd2, 0xcd, 0xed, 0x2c, 0xe3, 0xca, 0xd8, 0xbf, 0x16, 0xf8, 0x9e, 0x14, 0x37, 0xb1, 0x44, 0x35, 0xd6, 0xf9, 0x2a, 0xf1, 0xec, 0xed, 0x5a, 0x12, 0x72, 0x1a, 0xd3, 0xfa, 0x19, 0x0d, 0x29, 0xd9, 0x59, 0xab, 0x45, 0x81, 0xce, 0xee, 0xfb, 0x89, 0xea, 0xf3, 0x9a, 0x63, 0xff, 0xcd, 0x2d, 0xd7, 0x19, 0x28, 0x6c, 0x01, 0x3b, 0x42, 0x34, 0x5e, 0x1e, 0x41, 0x1d, 0x67, 0x39, 0xf3, 0x01, 0x05, 0x28, 0xd6, 0xb8, 0xb0, 0xed, 0x0c, 0x1d, 0x25, 0x29, 0x18, 0x3a, 0xdd, 0xd1, 0x0c, 0xbe, 0x73, 0x0e, 0x30, 0x01, 0x9b, 0xfb, 0x53, 0xd1, 0xa0, 0x39, 0xd7, 0xd4, 0xd9, 0x97, 0xf7, 0x36, 0x22, 0xe0, 0x4b, 0xce, 0xac, 0xca, 0x23, 0xf2, 0x53, 0x21, 0x6e, 0x81, 0xe2, 0x06, 0xce, 0x7d, 0x5d, 0xb1, 0x63, 0x08, 0xbb, 0x07, 0x64, 0x5e, 0x72, 0x2f, 0x16, 0x7f, 0xde, 0x20, 0x19, 0xfd, 0xef, 0x38, 0x98, 0x0b, 0x05, 0x2d, 0xae, 0xcc, 0xdf, 0x1c, 0xcd, 0x23, 0x07, 0xc1, 0x15, 0xd3, 0x2a, 0x21, 0xf8, 0xe0, 0x15, 0x1b, 0x5a, 0xd1, 0xb9, 0x29, 0x0b, 0xe1, 0x33, 0xae, 0x0a, 0x2e, 0xc7, 0x00, 0xfd, 0xeb, 0x0d, 0xbd, 0xc2, 0xd7, 0xff, 0xf4, 0x48, 0xe0, 0x5e, 0xa5, 0x5c, 0x00, 0xff, 0x1a, 0x28, 0x1b, 0x22, 0x38, 0x0c, 0x31, 0xe3, 0x13, 0xd4, 0xfa, 0xfd, 0xea, 0x37, 0x13, 0xc8, 0xc6, 0xe9, 0x3d, 0xef, 0xfa, 0xd8, 0xf9, 0xf5, 0xfe, 0xf3, 0xc2, 0xbd, 0x1f, 0xb8, 0x3d, 0xec, 0x1e, 0x04, 0x08, 0xca, 0xed, 0x1f, 0x2c, 0x50, 0x18, 0xe3, 0x27, 0x34, 0x13, 0xfa, 0x11, 0x0f, 0xee, 0x75, 0x7f, 0xf8, 0xaf, 0xd8, 0xc1, 0xbc, 0xfb, 0xd5, 0xf1, 0xe2, 0x9d, 0x35, 0x48, 0x03, 0xb6, 0x4b, 0xa0, 0x33, 0xce, 0xf7, 0x4f, 0xc2, 0xf3, 0xb6, 0x25, 0xed, 0xa7, 0xb2, 0xf8, 0xee, 0xd1, 0xd6, 0x6d, 0xa4, 0xa5, 0xfe, 0x34, 0xe0, 0xab, 0x12, 0xb8, 0xa5, 0xbc, 0x51, 0x0c, 0x47, 0x4c, 0xce, 0xa6, 0xf5, 0x26, 0x30, 0xce, 0x3a, 0x96, 0xfe, 0x03, 0xeb, 0x7f, 0x69, 0xa5, 0x2a, 0xa7, 0xd9, 0x45, 0x13, 0x06, 0xdc, 0xea, 0xfc, 0x2a, 0xf3, 0x0a, 0x35, 0x0d, 0x15, 0xef, 0xe7, 0xea, 0xd4, 0xf9, 0xc8, 0x1a, 0xfc, 0xe9, 0x1c, 0xd9, 0xe7, 0xfa, 0xed, 0xf5, 0xfb, 0xc5, 0x21, 0x1e, 0x26, 0x9c, 0x45, 0x3b, 0xed, 0x43, 0x30, 0x33, 0x3b, 0x3b, 0x24, 0xf7, 0xf6, 0xee, 0x2f, 0xd4, 0xfa, 0x17, 0xfd, 0x28, 0x17, 0xf6, 0x81, 0xf2, 0x3b, 0x00, 0xdb, 0xe4, 0xeb, 0xff, 0xf6, 0xbf, 0xec, 0x0d, 0x07, 0xec, 0x05, 0x06, 0x23, 0x34, 0xda, 0x05, 0x19, 0xf9, 0x05, 0x31, 0x0e, 0xe8, 0xf2, 0x3e, 0xfc, 0x13, 0xd9, 0xf4, 0x09, 0xe8, 0x05, 0x0c, 0x34, 0xf8, 0x48, 0x11, 0x18, 0xeb, 0xb4, 0xfb, 0x13, 0x4b, 0x37, 0xf3, 0xc2, 0xd0, 0xfd, 0xcc, 0x02, 0x1b, 0x03, 0xf1, 0x11, 0x81, 0x63, 0xc5, 0xce, 0xe9, 0xfa, 0xed, 0xf0, 0x04, 0xe4, 0x0a, 0xec, 0x3d, 0x28, 0xd8, 0x17, 0xc6, 0xea, 0xf7, 0xe7, 0xfc, 0x1b, 0x37, 0x2f, 0xf5, 0x2f, 0xee, 0xeb, 0x24, 0xe7, 0xe9, 0xd4, 0xf1, 0x38, 0x17, 0xe7, 0xcf, 0x3d, 0x0d, 0xe9, 0xf7, 0x3f, 0x50, 0x42, 0xd2, 0xdb, 0xb1, 0xec, 0xd5, 0xda, 0xc8, 0xc6, 0x36, 0x0d, 0xe7, 0x0a, 0xfe, 0x81, 0xb3, 0xde, 0x64, 0x2c, 0xc3, 0xe6, 0x0c, 0xe4, 0x00, 0x1c, 0x19, 0x0f, 0x0c, 0x0c, 0xce, 0x10, 0xc1, 0x2c, 0xf9, 0xc7, 0xed, 0xfa, 0xd3, 0x19, 0xfb, 0x1c, 0x23, 0xe8, 0x1c, 0xf7, 0xd4, 0x18, 0x2f, 0x3d, 0xdc, 0x08, 0x00, 0xe3, 0xce, 0x4c, 0xc8, 0x02, 0x29, 0x0a, 0xd3, 0xf0, 0xab, 0x07, 0xee, 0x05, 0x13, 0xc4, 0xb2, 0x23, 0x11, 0x31, 0x16, 0x0e, 0xdc, 0x81, 0x34, 0x36, 0xbe, 0x1e, 0xd8, 0xd6, 0xdc, 0xc3, 0x41, 0x44, 0x24, 0x0c, 0xe1, 0xd6, 0x45, 0xc7, 0x18, 0x57, 0x23, 0x06, 0xc4, 0x3b, 0x91, 0x15, 0x36, 0xeb, 0xae, 0x32, 0xfd, 0x02, 0x27, 0x1a, 0x21, 0xba, 0xd8, 0xad, 0xe2, 0xd7, 0x50, 0xda, 0x9d, 0xed, 0x2b, 0xbd, 0xdc, 0x3d, 0xc6, 0xd9, 0xa1, 0x18, 0x4b, 0x13, 0x28, 0xfd, 0xc5, 0x69, 0x7f, 0xe4, 0x8f, 0xe7, 0x38, 0xad, 0x35, 0x09, 0x3b, 0xd8, 0x0b, 0xfd, 0x41, 0x04, 0xfa, 0x13, 0xdb, 0x12, 0x23, 0xec, 0x0f, 0x3c, 0xdd, 0x28, 0xcd, 0xcc, 0xfd, 0x43, 0x21, 0x39, 0xb1, 0xc2, 0xbc, 0xd4, 0xe0, 0x43, 0x12, 0x44, 0xbb, 0xfb, 0x04, 0x05, 0x4f, 0xe3, 0x12, 0x25, 0x17, 0x07, 0x10, 0x17, 0xd2, 0x05, 0xe0, 0x34, 0xd0, 0xf4, 0x0d, 0x9c, 0x7f, 0x1e, 0xc8, 0x4d, 0xc5, 0x0c, 0xbd, 0x16, 0x2f, 0x20, 0x1b, 0xf7, 0xb6, 0x4a, 0x2b, 0xc8, 0xf6, 0xe9, 0xc4, 0xd5, 0xcd, 0x2e, 0xe8, 0x1a, 0xf2, 0x0f, 0x1a, 0xb1, 0x2a, 0x3b, 0x04, 0xe6, 0x5d, 0xfc, 0x47, 0x64, 0x40, 0x02, 0xad, 0x44, 0x33, 0xe6, 0xee, 0x04, 0xd8, 0xe5, 0x56, 0x54, 0xf4, 0x45, 0x0f, 0xd7, 0x04, 0x28, 0x0f, 0xee, 0xc0, 0x9d, 0x1d, 0x81, 0xd2, 0x27, 0x21, 0xf0, 0x29, 0xcd, 0xb2, 0x14, 0x46, 0xe9, 0x29, 0x4d, 0x61, 0x4b, 0x40, 0x09, 0xe9, 0xce, 0x5b, 0x02, 0xf3, 0x75, 0x0d, 0x3e, 0x1c, 0x0e, 0x2c, 0x1b, 0xf6, 0xd8, 0xf0, 0xe1, 0x24, 0x2e, 0x2f, 0xfe, 0xe5, 0x41, 0xc1, 0x10, 0xe7, 0xcb, 0xd1, 0xd7, 0xfb, 0xb8, 0x7f, 0xd1, 0xf1, 0x7f, 0x1f, 0x0b, 0x21, 0xff, 0x61, 0x2f, 0xf8, 0x7a, 0x2d, 0x96, 0x15, 0xd0, 0x68, 0xb2, 0xbd, 0xd0, 0xf4, 0xf9, 0x07, 0x0c, 0x02, 0x61, 0x8f, 0x27, 0x42, 0xc2, 0xf3, 0xc1, 0x27, 0xe8, 0x93, 0x35, 0x0a, 0xf7, 0x36, 0xc2, 0x01, 0xff, 0x68, 0xbc, 0xee, 0x37, 0xcc, 0x52, 0xa0, 0x29, 0x08, 0x2c, 0x24, 0x1f, 0xb9, 0xf5, 0xeb, 0x3c, 0x2d, 0xb7, 0x4d, 0x1f, 0xcd, 0x31, 0xa8, 0x9f, 0x24, 0x7f, 0x81, 0x6a, 0xd5, 0xa2, 0x49, 0x42, 0x43, 0xfd, 0xe6, 0xea, 0x1e, 0x34, 0x1b, 0xd3, 0x26, 0xeb, 0xd6, 0xe1, 0x25, 0x01, 0xee, 0xce, 0x0f, 0xdb, 0xc4, 0x33, 0x02, 0xfc, 0xc5, 0xbb, 0xe9, 0x16, 0x23, 0xec, 0x1e, 0xfc, 0x2b, 0xce, 0xcb, 0xe0, 0xd7, 0x39, 0x3e, 0x35, 0xe3, 0x0d, 0x05, 0x3c, 0x21, 0xcf, 0x1a, 0x24, 0x4f, 0xd5, 0xff, 0x2d, 0xd1, 0x81, 0xb4, 0x37, 0x50, 0xe6, 0xc2, 0xc2, 0x36, 0x3a, 0x12, 0xc0, 0x08, 0xf7, 0x45, 0xf2, 0xba, 0x11, 0x81, 0x2e, 0xc3, 0xcf, 0x31, 0x7f, 0x09, 0x5b, 0x14, 0xba, 0x35, 0x13, 0x51, 0x21, 0x4d, 0xec, 0xc3, 0x31, 0x11, 0x0e, 0x28, 0xda, 0x0e, 0xaf, 0xbe, 0xef, 0x26, 0x21, 0x56, 0x25, 0x0d, 0x03, 0x15, 0xd2, 0xeb, 0x16, 0xe5, 0xd9, 0xe0, 0xc3, 0x42, 0xac, 0x32, 0x11, 0x91, 0xa3, 0x3f, 0x3a, 0xaf, 0x00, 0x3a, 0x46, 0x24, 0xf9, 0x29, 0x2e, 0xe2, 0xe8, 0x10, 0xbb, 0x39, 0xcd, 0xeb, 0xfb, 0xfc, 0xd8, 0x22, 0xc7, 0xe8, 0x3e, 0x36, 0xa9, 0x2d, 0xfc, 0xae, 0x27, 0x06, 0x49, 0x0b, 0x12, 0x81, 0x79, 0x4b, 0x46, 0x14, 0x28, 0x11, 0x04, 0xe8, 0x2b, 0xf9, 0x14, 0x0d, 0xd6, 0xdc, 0x29, 0xb9, 0xd8, 0x49, 0xde, 0xd1, 0xac, 0xc9, 0xd1, 0xca, 0x22, 0x26, 0x23, 0x23, 0x52, 0x1f, 0x12, 0x16, 0xe0, 0x37, 0x38, 0x28, 0x18, 0xca, 0xfc, 0xf4, 0x2f, 0x25, 0x32, 0x15, 0xf7, 0xf8, 0x1c, 0x4b, 0xa5, 0xf7, 0x0a, 0x3d, 0x3b, 0x48, 0xd5, 0x9b, 0x2d, 0x31, 0x48, 0x47, 0x4e, 0x15, 0x57, 0x10, 0x2f, 0x14, 0x24, 0xdf, 0xca, 0x44, 0xe5, 0xbd, 0x0c, 0x9e, 0xb9, 0xbf, 0x2e, 0xc9, 0x4d, 0x7f, 0x56, 0xb6, 0x24, 0x16, 0x03, 0x15, 0x06, 0x17, 0x25, 0x00, 0x19, 0xcb, 0xfb, 0xe4, 0xfa, 0xdc, 0x22, 0xf7, 0x36, 0x01, 0x03, 0xde, 0xf3, 0x1e, 0x11, 0x17, 0x05, 0xf8, 0xf9, 0x0d, 0x0a, 0xe3, 0xc7, 0xff, 0x10, 0x18, 0xe8, 0x08, 0x1e, 0xfd, 0x02, 0xdf, 0xd6, 0x01, 0x14, 0x19, 0xff, 0xe3, 0xeb, 0x29, 0xee, 0x27, 0x00, 0xea, 0x81, 0x2e, 0x1e, 0x37, 0x0e, 0x0b, 0x13, 0x23, 0xfd, 0x63, 0x38, 0x04, 0x0c, 0x12, 0xd1, 0x1c, 0x75, 0x04, 0xca, 0xcf, 0x11, 0x02, 0xf0, 0xe1, 0x2a, 0x0e, 0x3f, 0xd9, 0x03, 0xf0, 0x21, 0x50, 0x04, 0xa8, 0x48, 0xbd, 0xaa, 0xe4, 0xec, 0xee, 0xf9, 0x39, 0x3e, 0xf4, 0x23, 0x3e, 0xea, 0xbc, 0xd4, 0x3c, 0xca, 0x21, 0x2d, 0x06, 0xf0, 0x08, 0x2a, 0x09, 0xe7, 0xab, 0x96, 0x7f, 0xbc, 0xa8, 0x48, 0x19, 0x0b, 0xe3, 0xc7, 0x0d, 0xc2, 0x43, 0xc7, 0xfb, 0x33, 0xd9, 0x4d, 0xd9, 0xa8, 0x27, 0xd9, 0xd0, 0xce, 0x2f, 0x26, 0x1b, 0xae, 0x17, 0x42, 0xd7, 0xd3, 0x2f, 0x4b, 0x1a, 0xf2, 0xe6, 0x52, 0x0c, 0xdf, 0x4e, 0x7f, 0xcd, 0x61, 0xfb, 0x4b, 0xc0, 0x42, 0xe0, 0xc0, 0x05, 0x43, 0xcc, 0xe9, 0xee, 0xba, 0x27, 0x66, 0x04, 0xe7, 0x28, 0x5f, 0xbf, 0x17, 0x9a, 0xe7, 0xcc, 0xfa, 0x28, 0xf5, 0xc5, 0xf9, 0xf7, 0x19, 0x19, 0x24, 0x89, 0x34, 0xd6, 0x49, 0x5c, 0xba, 0xbe, 0xbd, 0xeb, 0xe7, 0xc8, 0xf7, 0x1c, 0x5b, 0xb9, 0x53, 0xd6, 0x08, 0xee, 0xf9, 0x31, 0xaa, 0x4d, 0x95, 0xbc, 0x90, 0x3e, 0xcf, 0xed, 0x21, 0x14, 0x22, 0x19, 0x31, 0x37, 0xb9, 0xb0, 0x60, 0x52, 0x81, 0x3a, 0x7a, 0x18, 0x3c, 0xa5, 0x58, 0x16, 0x14, 0x25, 0x03, 0x28, 0x28, 0x5f, 0x16, 0xe7, 0x1a, 0xef, 0x22, 0x25, 0x1f, 0x42, 0x2c, 0x31, 0x2a, 0xeb, 0x4f, 0xf6, 0x06, 0x01, 0x4e, 0xce, 0xc0, 0x0b, 0x1c, 0x10, 0xc1, 0xd5, 0x19, 0x90, 0xca, 0x0b, 0x06, 0x33, 0xeb, 0x0e, 0x42, 0xf3, 0x75, 0x1d, 0x1d, 0x02, 0xd8, 0x0e, 0xca, 0xd3, 0x20, 0xed, 0x0d, 0xc5, 0xec, 0x7f, 0x54, 0x35, 0x39, 0xff, 0x1a, 0xf6, 0x21, 0x26, 0x48, 0xd9, 0xd1, 0x09, 0x63, 0x18, 0x70, 0x4b, 0xbc, 0xbf, 0x01, 0x0f, 0x20, 0x2d, 0xc2, 0x38, 0xf4, 0xde, 0x31, 0xd0, 0x7a, 0xf3, 0xbd, 0x19, 0x77, 0x21, 0xd9, 0xa2, 0x65, 0x27, 0x00, 0x3b, 0x57, 0x48, 0xf6, 0xc1, 0xc3, 0x41, 0xd1, 0xb8, 0xfe, 0x45, 0x3d, 0x09, 0xd8, 0xc3, 0x7f, 0xf8, 0x22, 0xd1, 0x14, 0x0e, 0xb7, 0xf0, 0xed, 0x1f, 0x29, 0x69, 0xb7, 0x20, 0xf2, 0x32, 0x44, 0x71, 0xe2, 0x1f, 0xea, 0xd2, 0xe5, 0xf1, 0x12, 0x1b, 0xf1, 0xe7, 0x19, 0x14, 0xf0, 0x1a, 0x51, 0xbe, 0x28, 0xaf, 0x4a, 0xed, 0x2e, 0xea, 0x3e, 0xc4, 0x56, 0x4c, 0x27, 0xcc, 0xb6, 0xaf, 0x1e, 0x46, 0xe8, 0xd8, 0xd1, 0xd0, 0xf1, 0x0b, 0x0a, 0x40, 0x67, 0xa6, 0x81, 0xa6, 0xfc, 0x16, 0x49, 0x2c, 0x31, 0x1b, 0xec, 0x18, 0x45, 0xd9, 0xd5, 0x3c, 0xfd, 0x98, 0x4e, 0x15, 0x34, 0x77, 0x68, 0x31, 0x2d, 0x40, 0x8a, 0x30, 0xe0, 0xb8, 0xd9, 0xf6, 0xed, 0x65, 0xd1, 0x2c, 0xf5, 0xc2, 0x37, 0x16, 0xbf, 0x2c, 0xae, 0x7d, 0x33, 0x7f, 0xdd, 0x24, 0xa2, 0x6a, 0x4d, 0xdc, 0xd0, 0x31, 0xd1, 0xc4, 0x12, 0xc9, 0xef, 0x49, 0x17, 0x16, 0x28, 0xce, 0xa1, 0x3c, 0x3c, 0x42, 0xd3, 0x03, 0x30, 0xd5, 0x3e, 0x66, 0x68, 0x10, 0x35, 0xcd, 0x14, 0x5d, 0xee, 0x0d, 0xce, 0x22, 0xbe, 0x05, 0x05, 0xdf, 0x62, 0xe2, 0x02, 0xdf, 0x27, 0xe9, 0x63, 0x0e, 0x46, 0xe5, 0x7f, 0xe3, 0x1c, 0xbe, 0x36, 0x1b, 0x1c, 0xe1, 0xc8, 0x24, 0x09, 0x0d, 0xd2, 0xd3, 0x2b, 0xdb, 0x1d, 0x0a, 0x23, 0x96, 0x0b, 0x46, 0xea, 0x34, 0xc9, 0x01, 0x12, 0xe5, 0x05, 0xf7, 0xeb, 0x34, 0x14, 0x20, 0xef, 0xe8, 0xe5, 0xf6, 0x36, 0xe6, 0x16, 0x1f, 0x05, 0xe9, 0xee, 0x23, 0x16, 0xf4, 0xfd, 0x19, 0xdd, 0xc1, 0x45, 0xe5, 0x01, 0xfa, 0x3d, 0x0b, 0xb8, 0xed, 0x1b, 0x04, 0x1f, 0xee, 0x64, 0xeb, 0x0d, 0x30, 0x24, 0xf5, 0xc3, 0xdb, 0xdf, 0xed, 0x29, 0x26, 0xf8, 0xe0, 0xf6, 0x7f, 0x1f, 0x3c, 0x32, 0x28, 0xe7, 0xd9, 0x0e, 0xfe, 0xca, 0xeb, 0xf7, 0xfc, 0xf9, 0x4f, 0xfc, 0x00, 0x05, 0xe9, 0x1b, 0xcf, 0x09, 0xd6, 0xf9, 0x1f, 0xf1, 0x1a, 0xfb, 0xe9, 0x49, 0xda, 0x34, 0x06, 0x1e, 0x22, 0x05, 0xeb, 0x33, 0xc2, 0x22, 0x14, 0xde, 0x1d, 0x11, 0x1d, 0xf6, 0x22, 0xe0, 0xe5, 0xfb, 0xef, 0xeb, 0xe7, 0x34, 0x04, 0x7f, 0xaf, 0x28, 0x04, 0x15, 0xfb, 0x3a, 0xcc, 0xd6, 0xff, 0x03, 0xd6, 0x02, 0xe6, 0xf1, 0x08, 0x37, 0x12, 0xf6, 0xd2, 0x24, 0x09, 0xe6, 0xdc, 0x23, 0x2d, 0xf8, 0xe1, 0x3b, 0x23, 0xe4, 0x27, 0xf2, 0x0f, 0x02, 0x1c, 0x17, 0xf8, 0x4f, 0xdb, 0xd0, 0x2a, 0x3c, 0x0b, 0x39, 0xc7, 0x4a, 0xc7, 0xfd, 0x2c, 0xd3, 0xbc, 0xfd, 0x1c, 0xc6, 0x28, 0x2f, 0x20, 0x11, 0x04, 0xea, 0x7f, 0xfb, 0x45, 0x0e, 0xbd, 0xe9, 0x26, 0xfe, 0xde, 0xef, 0xd5, 0x24, 0x29, 0xf7, 0xd7, 0xe2, 0x20, 0x07, 0xe3, 0x0a, 0x1b, 0xd6, 0xc9, 0xf7, 0x35, 0xe2, 0xbc, 0x49, 0x1b, 0xd4, 0xbd, 0x25, 0x0f, 0xdf, 0x1c, 0x22, 0xec, 0xfb, 0x53, 0x2e, 0x49, 0x3e, 0xee, 0x2a, 0x35, 0x3e, 0x3c, 0xf7, 0x18, 0xed, 0x1b, 0xf0, 0xca, 0x33, 0x28, 0x22, 0xf5, 0x2b, 0x7f, 0x13, 0xd0, 0xb9, 0xdb, 0xf3, 0xd5, 0xf8, 0x5e, 0x2e, 0x07, 0xd4, 0xdd, 0x1c, 0xde, 0xc9, 0x42, 0xca, 0x1f, 0x71, 0xf9, 0x24, 0x62, 0xee, 0x18, 0xe6, 0x35, 0x42, 0x93, 0x1c, 0x37, 0x3b, 0xbe, 0x9e, 0xec, 0x38, 0x54, 0x52, 0x2f, 0x2a, 0xa7, 0xfa, 0x07, 0x95, 0x09, 0xc4, 0x3d, 0x74, 0x24, 0xc4, 0x1a, 0xc1, 0xb4, 0xdb, 0xa2, 0x90, 0x7f, 0x2c, 0xef, 0xf2, 0x53, 0x27, 0xd6, 0xd0, 0xe3, 0x3d, 0xd3, 0x0c, 0xb3, 0x4b, 0xf0, 0x07, 0x2a, 0x4e, 0x24, 0xf4, 0x37, 0xfb, 0xf2, 0xfb, 0x03, 0x00, 0xba, 0x33, 0x44, 0x01, 0x4f, 0xd5, 0x32, 0x0d, 0xf9, 0x47, 0xcd, 0xd1, 0x70, 0x97, 0x1e, 0xe1, 0x66, 0x18, 0xd8, 0xf3, 0xf1, 0xbe, 0x5e, 0xfa, 0xb9, 0xaf, 0x29, 0xe2, 0x37, 0x1a, 0xde, 0x81, 0xe6, 0x17, 0x4a, 0x3b, 0x49, 0x11, 0x4a, 0x0a, 0x63, 0xc8, 0x2f, 0x61, 0x07, 0xd8, 0xcc, 0x56, 0xb9, 0x97, 0x7f, 0xeb, 0xab, 0x5d, 0xd5, 0xb5, 0x6f, 0x2d, 0xf4, 0xd0, 0x19, 0xf0, 0xc0, 0x1a, 0x34, 0xb6, 0x40, 0xf4, 0x00, 0xfd, 0x1a, 0x4e, 0xa1, 0x92, 0x0b, 0x00, 0xfb, 0xb2, 0x9a, 0x27, 0xd1, 0xb8, 0xe6, 0xc4, 0x3a, 0xb5, 0x07, 0x75, 0xf1, 0xa8, 0x58, 0x1c, 0x12, 0x05, 0x9e, 0x3a, 0xd2, 0x21, 0x27, 0x1c, 0xda, 0x1f, 0xf1, 0xe9, 0xf1, 0xf7, 0xbd, 0xdb, 0xe6, 0xf2, 0x04, 0x4c, 0x1c, 0x38, 0x2b, 0x1d, 0xd4, 0x3a, 0x0a, 0xca, 0x00, 0xff, 0x34, 0x40, 0x53, 0x33, 0xf4, 0xd2, 0x0e, 0x4d, 0x18, 0x1f, 0x27, 0xd6, 0xcf, 0x30, 0xcd, 0xeb, 0x1f, 0x12, 0xd2, 0x18, 0xad, 0x11, 0x17, 0xc8, 0x06, 0x81, 0x56, 0xf6, 0x11, 0xcc, 0x21, 0x48, 0xc7, 0xf5, 0x74, 0x6d, 0x3f, 0x0c, 0x3d, 0x25, 0x01, 0x05, 0xe2, 0x17, 0x04, 0x47, 0x65, 0x25, 0x4e, 0x00, 0xc7, 0x06, 0x1e, 0x45, 0xc8, 0xba, 0x36, 0xf6, 0x32, 0x0b, 0xb0, 0x09, 0xf7, 0x50, 0xf7, 0x20, 0x02, 0xdb, 0xfd, 0xc4, 0x28, 0x3e, 0x07, 0x36, 0xa3, 0x0f, 0xbc, 0x48, 0x04, 0x1c, 0x04, 0x7e, 0xf7, 0xd8, 0xe4, 0xe3, 0x81, 0xd7, 0x0a, 0xb0, 0xd2, 0xe7, 0x3f, 0x49, 0xf5, 0xfb, 0xf3, 0xdd, 0xf4, 0xe1, 0xd2, 0xb8, 0xd7, 0x10, 0x35, 0x0b, 0xfe, 0xe6, 0x19, 0xcf, 0x06, 0x24, 0x2e, 0x03, 0xd1, 0x43, 0xec, 0x62, 0xfd, 0xd2, 0x65, 0xca, 0xdf, 0xce, 0x3f, 0x22, 0xd0, 0x53, 0xca, 0xca, 0x2d, 0x35, 0x51, 0x35, 0x15, 0x38, 0x5d, 0x9d, 0xb5, 0x5c, 0x59, 0x09, 0x81, 0xf7, 0x14, 0xd0, 0x5a, 0xcc, 0x1d, 0xd3, 0xcf, 0xee, 0xf5, 0x15, 0x07, 0xff, 0x20, 0xf6, 0x4f, 0x05, 0x21, 0xb2, 0x04, 0xe2, 0x21, 0x14, 0x45, 0xf9, 0xbb, 0xf2, 0x21, 0x3d, 0x29, 0xdd, 0xe0, 0x3d, 0xdc, 0x1b, 0x01, 0x2c, 0xd7, 0x20, 0xd4, 0xec, 0x1c, 0xdb, 0x2a, 0x1a, 0xa7, 0x2b, 0x21, 0x09, 0xca, 0xd1, 0x53, 0xcb, 0xe2, 0x37, 0x0f, 0xf7, 0x81, 0x06, 0x35, 0xf9, 0x2a, 0x0b, 0x1c, 0xf5, 0xe6, 0x19, 0x1a, 0xf9, 0x02, 0x24, 0xd0, 0x07, 0xf1, 0x25, 0x29, 0x13, 0xcc, 0x07, 0x25, 0x08, 0xe1, 0x25, 0x17, 0xff, 0xf7, 0x20, 0x0c, 0xc9, 0xf2, 0xd0, 0x2f, 0x38, 0x21, 0x1f, 0xc1, 0xfe, 0xf5, 0x16, 0xdc, 0x00, 0x3d, 0xd2, 0xe1, 0x03, 0x3f, 0x30, 0xcc, 0x04, 0x43, 0x37, 0xee, 0x1d, 0xfe, 0x44, 0x27, 0x2b, 0x81, 0x2c, 0x1b, 0xd9, 0xe5, 0xdc, 0xee, 0x20, 0x5d, 0xe8, 0xf6, 0x1e, 0x07, 0xeb, 0xec, 0x0e, 0x2a, 0x17, 0xde, 0x25, 0xc9, 0xe8, 0x27, 0x18, 0x2e, 0xc3, 0x12, 0xce, 0xf7, 0xf1, 0x20, 0x2a, 0xfb, 0xb4, 0xfc, 0x25, 0x49, 0x32, 0x3d, 0x33, 0x04, 0x09, 0x2e, 0xeb, 0x20, 0xd5, 0x22, 0xd6, 0xee, 0x04, 0xe5, 0xe4, 0xd3, 0x2a, 0xc0, 0x7f, 0x03, 0x09, 0x22, 0xdb, 0x3f, 0x0e, 0xbc, 0x2a, 0xd1, 0x0e, 0x15, 0x08, 0xe6, 0xf4, 0x1b, 0x4d, 0x31, 0x47, 0x34, 0xd4, 0xd4, 0x15, 0x0b, 0xc4, 0xfd, 0x0a, 0x2e, 0xc1, 0xcd, 0x41, 0xff, 0x3b, 0xd3, 0x30, 0x00, 0xa5, 0xf8, 0xda, 0x31, 0xf1, 0x25, 0xfc, 0xe5, 0x40, 0x19, 0xd8, 0x1a, 0xe7, 0x46, 0x0c, 0xd4, 0x50, 0x23, 0xce, 0x23, 0xf0, 0xf6, 0x81, 0xcf, 0xd0, 0xf4, 0xc3, 0xd9, 0xca, 0x28, 0x18, 0x17, 0x42, 0x01, 0x27, 0x2b, 0xca, 0x1f, 0xf4, 0x18, 0x21, 0xfa, 0x2c, 0xd5, 0xde, 0xcb, 0x08, 0xe2, 0x3a, 0xfc, 0xfe, 0x2b, 0x08, 0x15, 0xdf, 0xb6, 0x35, 0xda, 0x7f, 0xf3, 0x49, 0xc1, 0x1f, 0x60, 0x02, 0x20, 0x46, 0xcd, 0xfa, 0xc1, 0x2d, 0x40, 0xdb, 0x34, 0xe0, 0x1a, 0xe4, 0xb9, 0x6f, 0x1e, 0x49, 0x51, 0x9d, 0xac, 0x35, 0xe9, 0xd7, 0xcd, 0x2c, 0x49, 0xf9, 0x12, 0xcf, 0xa2, 0x2f, 0xe6, 0xb7, 0x45, 0xc2, 0x2d, 0xe7, 0xd8, 0x21, 0xbd, 0xe6, 0xc4, 0x0e, 0x65, 0x1c, 0x2c, 0xaf, 0xe7, 0x49, 0xa9, 0x06, 0xec, 0x7f, 0x1a, 0x49, 0x89, 0xda, 0xb0, 0x12, 0x05, 0xfd, 0xac, 0x9d, 0xdf, 0x37, 0xae, 0x37, 0xf1, 0xdf, 0xcb, 0xb7, 0x97, 0x14, 0xfe, 0x9e, 0xde, 0x18, 0xd5, 0xb4, 0x24, 0x62, 0x40, 0xfa, 0xf4, 0xff, 0xff, 0x04, 0x00, 0x00, 0x00, 0x00, 0x01, 0x00, 0x00, 0x68, 0x00, 0x00, 0x00, 0x1d, 0x01, 0x00, 0x00, 0x1e, 0xf9, 0xff, 0xff, 0x97, 0x02, 0x00, 0x00, 0x7c, 0xfd, 0xff, 0xff, 0x8d, 0x00, 0x00, 0x00, 0xa7, 0x01, 0x00, 0x00, 0x36, 0x04, 0x00, 0x00, 0xfe, 0x03, 0x00, 0x00, 0x16, 0x00, 0x00, 0x00, 0xc5, 0xf9, 0xff, 0xff, 0x22, 0xfa, 0xff, 0xff, 0x16, 0x00, 0x00, 0x00, 0x3e, 0x03, 0x00, 0x00, 0x69, 0x04, 0x00, 0x00, 0x22, 0xfa, 0xff, 0xff, 0x84, 0xfc, 0xff, 0xff, 0x7c, 0xff, 0xff, 0xff, 0x4b, 0x00, 0x00, 0x00, 0x71, 0xfb, 0xff, 0xff, 0x17, 0x06, 0x00, 0x00, 0xc9, 0x00, 0x00, 0x00, 0x32, 0xfe, 0xff, 0xff, 0xf0, 0xfb, 0xff, 0xff, 0xcb, 0x00, 0x00, 0x00, 0x9f, 0xff, 0xff, 0xff, 0x21, 0x04, 0x00, 0x00, 0x7d, 0xfd, 0xff, 0xff, 0x2c, 0x03, 0x00, 0x00, 0x47, 0x00, 0x00, 0x00, 0xea, 0xfa, 0xff, 0xff, 0x27, 0x02, 0x00, 0x00, 0xe0, 0x00, 0x00, 0x00, 0x09, 0xfb, 0xff, 0xff, 0xa8, 0xfe, 0xff, 0xff, 0xbe, 0x02, 0x00, 0x00, 0xb1, 0xf8, 0xff, 0xff, 0xe9, 0x0a, 0x00, 0x00, 0x35, 0xfc, 0xff, 0xff, 0x21, 0x00, 0x00, 0x00, 0x57, 0x00, 0x00, 0x00, 0x30, 0xf9, 0xff, 0xff, 0x4c, 0x03, 0x00, 0x00, 0x68, 0xfb, 0xff, 0xff, 0xd1, 0x01, 0x00, 0x00, 0x81, 0x02, 0x00, 0x00, 0xdc, 0x02, 0x00, 0x00, 0x0e, 0x03, 0x00, 0x00, 0x46, 0xfc, 0xff, 0xff, 0x45, 0xfd, 0xff, 0xff, 0x3b, 0xfe, 0xff, 0xff, 0xbb, 0xfa, 0xff, 0xff, 0x6b, 0xfd, 0xff, 0xff, 0x7d, 0xff, 0xff, 0xff, 0xcb, 0x06, 0x00, 0x00, 0xe1, 0xfc, 0xff, 0xff, 0x49, 0x06, 0x00, 0x00, 0xa5, 0x00, 0x00, 0x00, 0x05, 0xff, 0xff, 0xff, 0xb0, 0x01, 0x00, 0x00, 0x2a, 0xfe, 0xff, 0xff, 0x16, 0x00, 0x00, 0x00, 0xc0, 0x07, 0x00, 0x00, 0x80, 0x03, 0x00, 0x00, 0x06, 0xf6, 0xff, 0xff, 0x04, 0x00, 0x00, 0x00, 0x00, 0x08, 0x00, 0x00, 0xb1, 0xeb, 0x33, 0xb3, 0x08, 0xb9, 0x02, 0xee, 0x3a, 0x91, 0x3f, 0x27, 0x81, 0xa3, 0xbe, 0xe2, 0x1d, 0xbc, 0xd1, 0x4a, 0xdf, 0x38, 0xff, 0x5c, 0x22, 0xf4, 0x01, 0x23, 0x4d, 0xf4, 0x37, 0x2d, 0xba, 0x38, 0xb7, 0xdb, 0xc3, 0xdc, 0x21, 0xf3, 0xf3, 0x9e, 0xd8, 0xd4, 0x54, 0xc4, 0xb0, 0xb3, 0x4d, 0xad, 0x23, 0x21, 0x3a, 0x98, 0x9f, 0x1b, 0x19, 0x25, 0x4e, 0xa2, 0xce, 0xed, 0xb2, 0xe4, 0xc4, 0xbe, 0x1a, 0xb5, 0x18, 0xd3, 0xc1, 0x11, 0x20, 0xe3, 0x58, 0xaa, 0xf5, 0x34, 0x86, 0xb1, 0x0a, 0xb8, 0x58, 0xc1, 0x26, 0xb4, 0x12, 0x2e, 0xe0, 0x94, 0xbe, 0x03, 0xf1, 0xad, 0x38, 0x31, 0xf7, 0xd1, 0xa8, 0x81, 0xa2, 0xd9, 0x35, 0x11, 0x11, 0x30, 0xb2, 0x27, 0x23, 0x0d, 0x08, 0x49, 0x47, 0x2b, 0xfb, 0x8d, 0x05, 0xcb, 0x0b, 0x39, 0xda, 0x57, 0xb2, 0x50, 0xd2, 0x48, 0xfe, 0xc9, 0xef, 0x3b, 0x38, 0xbb, 0xd4, 0xd6, 0x9b, 0x49, 0xa5, 0xc8, 0xfe, 0x3a, 0x05, 0xff, 0x2f, 0xb2, 0xa6, 0x3f, 0xef, 0xbd, 0xdc, 0xcd, 0x48, 0xa2, 0x35, 0xa5, 0x11, 0x96, 0x46, 0xba, 0xe7, 0x0b, 0xec, 0x9f, 0x81, 0xfb, 0xfb, 0xb3, 0x35, 0x54, 0x53, 0x11, 0x2e, 0xad, 0x05, 0xf2, 0x92, 0xc1, 0xe9, 0xc6, 0xc8, 0x34, 0xaf, 0x9d, 0x1c, 0xd4, 0xd1, 0x84, 0xda, 0xc6, 0xa7, 0xcb, 0xfc, 0x04, 0xa6, 0xbe, 0x7a, 0x14, 0xe6, 0xb1, 0x1b, 0xdf, 0xfd, 0xaf, 0x4a, 0xae, 0x36, 0xe6, 0x2d, 0x63, 0xcc, 0xea, 0xdf, 0x55, 0xda, 0xfa, 0xa1, 0x44, 0x06, 0xbe, 0xe2, 0x28, 0x30, 0x3c, 0xf5, 0xe2, 0xd7, 0x0f, 0xba, 0x08, 0x0a, 0xdc, 0x1c, 0x07, 0x11, 0x20, 0x10, 0x3a, 0x47, 0xf7, 0x18, 0x2d, 0x6a, 0x27, 0x11, 0x7f, 0x0b, 0x1b, 0xd5, 0xdb, 0x97, 0x34, 0xe8, 0xec, 0xf5, 0xee, 0xe7, 0xbe, 0x05, 0x1f, 0xe2, 0xc9, 0x91, 0xe3, 0xc0, 0xbd, 0xd5, 0xc2, 0x0f, 0xed, 0x58, 0x81, 0xf1, 0x21, 0x2a, 0x1f, 0xb4, 0x42, 0xb1, 0x34, 0x3d, 0xbd, 0xe5, 0x14, 0x69, 0x49, 0xd6, 0xd7, 0xc8, 0xb2, 0x91, 0xa7, 0x1f, 0x84, 0x23, 0xf4, 0xc7, 0xd8, 0xfa, 0x98, 0x2b, 0x25, 0xf3, 0x21, 0xb1, 0xf8, 0xa7, 0xcd, 0xa7, 0xbf, 0x89, 0xec, 0xab, 0x3e, 0x0e, 0x24, 0x21, 0x2c, 0x2a, 0x0b, 0x0d, 0x8f, 0xde, 0x6b, 0xf5, 0xf1, 0x2d, 0xf6, 0xf7, 0xd9, 0xa5, 0x66, 0xf8, 0x00, 0xf9, 0x01, 0xd4, 0x4c, 0x6e, 0xa7, 0x02, 0x66, 0x13, 0x38, 0x01, 0x1b, 0xd9, 0xfe, 0x78, 0xdf, 0x7a, 0x38, 0xcb, 0x6d, 0x37, 0xdc, 0xd7, 0xec, 0xcd, 0x4e, 0xd3, 0x3f, 0xec, 0x02, 0x01, 0xa0, 0xbb, 0x3a, 0x0e, 0x36, 0xef, 0x33, 0xe0, 0xfd, 0x41, 0x19, 0x70, 0x7c, 0x64, 0x44, 0x73, 0xe1, 0x04, 0x37, 0x7f, 0x08, 0x4f, 0x81, 0x3b, 0x36, 0x34, 0x1d, 0x2c, 0x18, 0xe7, 0x21, 0x35, 0xe9, 0xad, 0xf9, 0xee, 0xec, 0x57, 0x32, 0xd7, 0x1c, 0x98, 0xbd, 0x4e, 0xf7, 0x60, 0xf8, 0x32, 0xc8, 0xd6, 0xbb, 0x98, 0xf3, 0x81, 0xe1, 0xcd, 0x0a, 0x39, 0xba, 0x44, 0x55, 0x33, 0x44, 0xbb, 0xe3, 0x00, 0xb0, 0xe0, 0x43, 0xf5, 0x33, 0x3b, 0xed, 0x1b, 0x0f, 0x22, 0x1e, 0xb2, 0x37, 0xf8, 0xde, 0x18, 0x40, 0xea, 0x48, 0xa6, 0xf3, 0xd4, 0xe0, 0x02, 0xfc, 0xc8, 0xc5, 0xe9, 0x87, 0xe2, 0x0a, 0xe9, 0x00, 0x09, 0xfc, 0x4d, 0x3c, 0x82, 0x64, 0x2a, 0xb5, 0x05, 0x4e, 0xe7, 0xd5, 0xc4, 0x1c, 0x46, 0xd4, 0xe7, 0xc9, 0xb5, 0x04, 0x0a, 0x2e, 0xe3, 0xda, 0x6e, 0xe0, 0xfd, 0xfb, 0x9f, 0x47, 0x64, 0xae, 0xbf, 0x5f, 0x0d, 0x4f, 0x4e, 0xe1, 0xbc, 0x3b, 0x07, 0x81, 0xd3, 0xc1, 0x36, 0x82, 0x5d, 0xf3, 0xf5, 0x55, 0x4b, 0x3d, 0x21, 0xe4, 0x6c, 0x5b, 0x1d, 0x51, 0x1b, 0x3d, 0x00, 0x23, 0x7c, 0x2b, 0x3c, 0xee, 0xc3, 0x60, 0xf3, 0x34, 0xe0, 0x65, 0x25, 0xcf, 0xe8, 0xd4, 0x3a, 0xd1, 0x18, 0x6e, 0xd5, 0x1a, 0xd6, 0xfc, 0x27, 0xdd, 0x34, 0xe4, 0x15, 0x34, 0x0f, 0xe2, 0x7f, 0xf5, 0x08, 0x1b, 0xea, 0x50, 0x21, 0xcb, 0x3e, 0x0b, 0xe6, 0x44, 0x50, 0xea, 0xd1, 0x43, 0x36, 0xd6, 0x03, 0x62, 0xbe, 0x2d, 0x14, 0xdb, 0x27, 0x38, 0x08, 0x1d, 0xfe, 0x04, 0xff, 0xd0, 0xff, 0xf3, 0xda, 0xe2, 0xc9, 0x94, 0xc9, 0xe6, 0x08, 0xeb, 0xa7, 0xe6, 0x88, 0x01, 0x11, 0xd8, 0xf5, 0xa9, 0xb5, 0x34, 0xed, 0xb5, 0xf4, 0x30, 0xe6, 0x21, 0x0c, 0xa7, 0xfe, 0xb1, 0x1f, 0x22, 0xc6, 0xd6, 0xc0, 0xa4, 0x3e, 0x26, 0x37, 0x81, 0xdb, 0xc0, 0xfe, 0xa9, 0x23, 0xac, 0xea, 0x3c, 0xf0, 0x28, 0xd1, 0x44, 0x0a, 0xdc, 0x3a, 0xad, 0xc6, 0xc7, 0xfb, 0xd9, 0xbd, 0xa2, 0x22, 0xf9, 0x17, 0xbc, 0x4c, 0x22, 0x3b, 0xc9, 0xe2, 0xd2, 0x20, 0x96, 0xae, 0x98, 0x15, 0x95, 0x07, 0xed, 0x81, 0xdc, 0x9d, 0x07, 0xfa, 0xcb, 0x17, 0x29, 0xee, 0x98, 0x5b, 0x90, 0xac, 0xb2, 0x10, 0xc8, 0xc7, 0xdf, 0x3b, 0x1c, 0xb9, 0xb8, 0x05, 0xe4, 0xba, 0xf6, 0x3b, 0x9f, 0xbf, 0xf6, 0x33, 0x07, 0x20, 0xab, 0x96, 0xf7, 0x8d, 0xa4, 0x95, 0xcf, 0x0c, 0xa5, 0x53, 0x8e, 0x36, 0xe5, 0xa6, 0xe6, 0xf3, 0xf5, 0x2d, 0x89, 0x21, 0xc5, 0xf7, 0x06, 0xed, 0xd1, 0xd9, 0xee, 0x46, 0xa3, 0xf9, 0xc5, 0x57, 0xd6, 0x36, 0x0c, 0xdf, 0x3c, 0xdc, 0x88, 0xe6, 0x96, 0xf7, 0xea, 0x37, 0xb1, 0x9f, 0xd4, 0xdb, 0x27, 0x19, 0x50, 0x89, 0xcb, 0xf7, 0x07, 0xdd, 0x95, 0xd9, 0x3a, 0x30, 0x50, 0x58, 0xc9, 0x81, 0xbc, 0xb8, 0xdb, 0xc1, 0x86, 0x22, 0x14, 0x35, 0xf8, 0xdb, 0x19, 0xc2, 0x24, 0xf6, 0xe6, 0x2d, 0x21, 0xc4, 0x00, 0xfe, 0x11, 0xf1, 0x0f, 0x27, 0xee, 0x52, 0x01, 0x2a, 0xea, 0x3c, 0x77, 0x7f, 0x24, 0xc5, 0xfa, 0x20, 0x4b, 0x40, 0x25, 0x2a, 0x16, 0x2a, 0x20, 0x21, 0x0b, 0x23, 0x00, 0x4b, 0x25, 0x2c, 0x65, 0x2b, 0x4c, 0x07, 0x24, 0x61, 0x38, 0x41, 0x3a, 0x4a, 0x1a, 0x0a, 0x55, 0x17, 0x2e, 0x64, 0x0f, 0x7c, 0x62, 0xef, 0xc4, 0x0b, 0x54, 0x0a, 0x2a, 0xb5, 0xf8, 0x20, 0xf8, 0xdd, 0xf2, 0x3c, 0x02, 0x52, 0x03, 0xb6, 0x53, 0xc9, 0xc5, 0x29, 0x09, 0x07, 0x01, 0xdb, 0xec, 0x50, 0x4a, 0x2b, 0xf6, 0x13, 0xd3, 0x39, 0x3c, 0x22, 0x23, 0x63, 0xc6, 0xd5, 0x5d, 0x45, 0xfa, 0x6c, 0x03, 0xf3, 0x17, 0xf7, 0xde, 0xa9, 0x22, 0x23, 0x18, 0x55, 0x4c, 0xdd, 0xfe, 0x50, 0x30, 0x47, 0x2e, 0x1c, 0x81, 0xf3, 0xcb, 0x11, 0x56, 0xc1, 0x53, 0x1b, 0xe3, 0x71, 0xfd, 0x54, 0x4c, 0xbd, 0x29, 0xe7, 0x37, 0xb1, 0x3c, 0x1a, 0xbd, 0x7b, 0xc6, 0x4a, 0xed, 0x5f, 0x05, 0x32, 0x3c, 0x37, 0x0f, 0xce, 0xb6, 0x0d, 0x1a, 0xd7, 0x13, 0x74, 0x0b, 0x36, 0x4d, 0x01, 0xbc, 0xc8, 0xad, 0x4b, 0x81, 0xbe, 0xbb, 0x20, 0x19, 0xc7, 0x09, 0x24, 0xd4, 0x16, 0xd4, 0x3c, 0xd8, 0x70, 0x5d, 0xb1, 0x31, 0x48, 0xb6, 0x26, 0x53, 0xe2, 0xcb, 0x3a, 0x49, 0xa7, 0xf4, 0xea, 0xb4, 0xa0, 0x43, 0xbb, 0xee, 0xd1, 0x81, 0x9c, 0x24, 0x34, 0xc6, 0x00, 0xc6, 0xfd, 0x49, 0x49, 0xb3, 0x06, 0xf1, 0x2b, 0xda, 0xca, 0xa4, 0xc9, 0x12, 0x0e, 0xc9, 0xab, 0x86, 0xa8, 0xe8, 0xda, 0x06, 0xce, 0x1a, 0xc6, 0x36, 0xe0, 0x49, 0xfc, 0xb0, 0x04, 0x20, 0x56, 0x74, 0xf6, 0x39, 0xc4, 0xca, 0xa9, 0x35, 0x9b, 0x12, 0x3d, 0x2f, 0xf4, 0xcf, 0x63, 0x7f, 0xb9, 0x06, 0x41, 0x23, 0xdd, 0x40, 0x4d, 0xb3, 0xb1, 0x1d, 0xc9, 0xb1, 0xcb, 0x33, 0x3b, 0x0a, 0xeb, 0x2b, 0x12, 0x48, 0x27, 0xf8, 0xda, 0x32, 0xdf, 0x48, 0x0e, 0xdf, 0xac, 0x33, 0xcc, 0xfd, 0xd5, 0xf0, 0xce, 0xc4, 0xbb, 0x5b, 0x11, 0xb6, 0xbd, 0xc5, 0xb9, 0xb9, 0x34, 0x0e, 0xfa, 0xc5, 0x47, 0xe8, 0xf3, 0xdb, 0xf9, 0x95, 0xd9, 0xdd, 0xcf, 0x20, 0x83, 0xd7, 0x09, 0xd7, 0x5f, 0x17, 0xdb, 0x09, 0x36, 0x1b, 0x00, 0x1e, 0x0d, 0x32, 0xe9, 0xef, 0x54, 0x18, 0xe6, 0xc4, 0xdf, 0x08, 0x33, 0xf4, 0x59, 0x5d, 0x68, 0xf3, 0x23, 0x2e, 0xd8, 0xca, 0xf4, 0xcb, 0xd4, 0x49, 0x1f, 0x5e, 0x84, 0x6b, 0x66, 0x1d, 0xc9, 0x7f, 0x0a, 0xcf, 0x0b, 0xee, 0xe9, 0x30, 0x56, 0x03, 0x04, 0xb9, 0xc4, 0xec, 0x60, 0xf0, 0x5c, 0x47, 0x49, 0x29, 0xa7, 0x32, 0xe5, 0xf1, 0x6d, 0x46, 0x58, 0x1a, 0xfc, 0x42, 0x55, 0xd3, 0x77, 0xe6, 0xf0, 0xec, 0xee, 0xad, 0xf1, 0x2d, 0x0c, 0x15, 0xe4, 0x3e, 0x1e, 0x12, 0x53, 0xdc, 0xa8, 0x32, 0x27, 0x31, 0x7f, 0x3c, 0x1b, 0x54, 0x9d, 0x0d, 0x44, 0x14, 0x06, 0xdf, 0xc7, 0x54, 0xe0, 0x18, 0xd3, 0x21, 0x26, 0xb4, 0x54, 0x1a, 0xdb, 0xe8, 0xe1, 0x4f, 0xef, 0x19, 0x30, 0xee, 0xfd, 0xf3, 0x1b, 0xd5, 0x38, 0x6f, 0xff, 0xca, 0x39, 0xd2, 0x1b, 0xd0, 0x7f, 0x2c, 0x01, 0x3e, 0xeb, 0x24, 0x31, 0xf2, 0xec, 0x34, 0xde, 0x2e, 0x5b, 0xbe, 0xeb, 0xed, 0xef, 0x47, 0xc4, 0x59, 0x29, 0x50, 0x74, 0xb0, 0xd7, 0xf3, 0x4b, 0x65, 0xf7, 0x31, 0x4d, 0xdd, 0x31, 0x37, 0xd2, 0xb9, 0x37, 0x20, 0x50, 0x38, 0x2a, 0xdb, 0x3e, 0x3d, 0xfb, 0x5a, 0x0f, 0x07, 0x0e, 0x32, 0x06, 0x41, 0xf8, 0x46, 0x44, 0xfc, 0x37, 0xf4, 0xcb, 0x1c, 0x50, 0x52, 0xad, 0x8d, 0x57, 0x1b, 0xbc, 0xbc, 0x52, 0x2a, 0xd3, 0x21, 0xdd, 0x00, 0xb9, 0x11, 0x39, 0xdd, 0x3e, 0xa8, 0x9a, 0x5c, 0xaa, 0xad, 0xdb, 0x37, 0xf5, 0x59, 0x10, 0x3c, 0xd2, 0xe3, 0x81, 0xfd, 0xfb, 0x6c, 0x5e, 0x46, 0x06, 0xd9, 0xc8, 0x76, 0xc7, 0xdf, 0xf6, 0x4d, 0xc7, 0xbd, 0xdc, 0xcc, 0x17, 0xa6, 0x21, 0x25, 0xa9, 0x19, 0x1a, 0xf0, 0xcc, 0xa0, 0x1c, 0x0e, 0x4c, 0xc0, 0xbb, 0x0a, 0xea, 0xe6, 0xbf, 0xee, 0xf4, 0xea, 0xf2, 0x2a, 0x8b, 0x43, 0x11, 0xb5, 0x14, 0x86, 0xe6, 0x02, 0x03, 0xdc, 0x8c, 0xa5, 0xc9, 0xa2, 0x00, 0xb0, 0xe9, 0xb7, 0x0f, 0x12, 0xf6, 0x25, 0x13, 0x87, 0xe6, 0xc3, 0xd6, 0xa7, 0x33, 0xd6, 0xb7, 0xaa, 0x16, 0xe9, 0x91, 0x14, 0x11, 0xf4, 0xcc, 0x19, 0x2a, 0xaa, 0x81, 0xff, 0xc8, 0xad, 0x05, 0x47, 0x00, 0xbe, 0xc6, 0xaf, 0x32, 0xe4, 0xc0, 0x0a, 0x9c, 0x09, 0x18, 0xe0, 0x38, 0x38, 0xfd, 0x31, 0xcc, 0xf6, 0xa3, 0xba, 0xfc, 0xa2, 0xab, 0xeb, 0x8b, 0xd9, 0x42, 0xea, 0xec, 0x21, 0xc5, 0xf1, 0x2d, 0x81, 0xf7, 0x25, 0xe8, 0x33, 0xd1, 0x45, 0x42, 0x10, 0x16, 0xf3, 0x2f, 0x04, 0xf2, 0x15, 0x31, 0x9e, 0xb9, 0x3f, 0xb8, 0x14, 0xc6, 0xad, 0xff, 0x2d, 0xa3, 0xe6, 0x2b, 0x92, 0x06, 0xc6, 0xaa, 0xab, 0x3f, 0x96, 0x13, 0xd0, 0xd9, 0x8d, 0x1c, 0x03, 0x26, 0xc5, 0xe8, 0xd1, 0x88, 0xb0, 0xa1, 0xc5, 0x95, 0x37, 0xfe, 0x0e, 0xa4, 0xbb, 0xfe, 0xa2, 0xa9, 0x43, 0x83, 0x3a, 0xf4, 0x33, 0x99, 0xd9, 0xd2, 0xe5, 0xc2, 0xad, 0x8d, 0x18, 0x3f, 0x23, 0x5a, 0x90, 0x31, 0xc5, 0xba, 0x8b, 0x50, 0xa0, 0x45, 0x14, 0x1e, 0x3f, 0x0c, 0xb4, 0x91, 0xb8, 0xae, 0xca, 0xcb, 0x87, 0xc5, 0x81, 0x9a, 0x48, 0xb3, 0xb7, 0x6b, 0xef, 0x51, 0x9a, 0xf0, 0x5d, 0x0a, 0x54, 0x13, 0xe8, 0x1b, 0x09, 0x50, 0xdf, 0x0b, 0xf7, 0x3f, 0x56, 0x4e, 0x2f, 0x2a, 0xf3, 0x19, 0xfa, 0x0d, 0xe6, 0xfd, 0x1b, 0x21, 0x0a, 0x7f, 0x1b, 0x37, 0x67, 0x49, 0x49, 0x11, 0xce, 0xf5, 0xcd, 0xe7, 0x57, 0xbd, 0xef, 0x0a, 0xdb, 0xf9, 0xcd, 0x63, 0x4a, 0xf4, 0x5f, 0xa3, 0xd6, 0xd1, 0xde, 0x12, 0xca, 0x44, 0x3d, 0xf7, 0x40, 0xe3, 0x42, 0x05, 0x1b, 0x4b, 0x18, 0x40, 0x4a, 0xd2, 0x0b, 0x13, 0xdc, 0x2a, 0x26, 0xc9, 0xdb, 0x58, 0xe8, 0x9a, 0xbb, 0x98, 0x51, 0xcc, 0xdb, 0x9b, 0x3c, 0x83, 0x76, 0x5b, 0xed, 0xbf, 0xf2, 0x39, 0x92, 0x9d, 0xcb, 0xff, 0xd5, 0xba, 0x21, 0xd8, 0x81, 0x03, 0xec, 0x2e, 0xc1, 0xe5, 0x48, 0xf5, 0x11, 0xb8, 0x8d, 0xc6, 0xf9, 0xa2, 0xa0, 0x0d, 0xf2, 0x1a, 0xe4, 0x00, 0xa5, 0xf5, 0x5d, 0xc9, 0x53, 0x3d, 0x93, 0x43, 0xa7, 0x1c, 0xbc, 0x2d, 0x30, 0x08, 0xe4, 0x1f, 0xf9, 0x4e, 0xf3, 0xd3, 0xce, 0xc3, 0x1e, 0x2a, 0x56, 0xc0, 0xff, 0x1e, 0x3b, 0x02, 0xb6, 0xd2, 0x01, 0xed, 0x34, 0xc5, 0x0c, 0xe5, 0x59, 0x1b, 0xe0, 0x2c, 0xe3, 0xf2, 0xd9, 0xdf, 0xe0, 0xe2, 0x77, 0x39, 0x1b, 0x39, 0xef, 0x15, 0x0d, 0x2f, 0xf5, 0xf2, 0xd5, 0x06, 0xfa, 0x60, 0x7f, 0xc1, 0x4a, 0xe9, 0xbc, 0xf2, 0x33, 0xca, 0x28, 0xcd, 0x52, 0x45, 0x24, 0xd9, 0x07, 0x5a, 0x7f, 0x45, 0x60, 0x65, 0x14, 0xdd, 0x32, 0x01, 0x4c, 0x22, 0xdd, 0x54, 0x1c, 0x27, 0xf4, 0x55, 0x75, 0x08, 0x55, 0x37, 0xe8, 0xbf, 0x46, 0x09, 0x42, 0x04, 0x2d, 0xe1, 0x2b, 0x0b, 0x4b, 0xf2, 0x22, 0x66, 0xe8, 0x54, 0x0d, 0xd6, 0x54, 0xff, 0x57, 0x3a, 0x3e, 0x22, 0xc6, 0x19, 0xfa, 0x2b, 0xca, 0x37, 0xc9, 0x4c, 0xdf, 0x10, 0x50, 0xc1, 0x3a, 0x39, 0x60, 0x88, 0x9d, 0xa1, 0x1d, 0xc5, 0xd8, 0xbb, 0xa3, 0xb4, 0xa7, 0x51, 0x49, 0x34, 0x29, 0x81, 0x9c, 0x3f, 0x20, 0x9d, 0xd5, 0xa7, 0xbd, 0x48, 0x2b, 0x55, 0x5f, 0x97, 0xc6, 0xd5, 0x5d, 0xc7, 0x07, 0xfb, 0x68, 0x45, 0x98, 0x22, 0xe0, 0x2e, 0x55, 0x54, 0xb2, 0xd6, 0x8a, 0xe9, 0x00, 0x1e, 0xdd, 0x8d, 0x8a, 0xd0, 0x11, 0xbb, 0xf9, 0xc2, 0x90, 0xff, 0xab, 0xfe, 0xea, 0xe6, 0xe1, 0x93, 0xe0, 0xdf, 0x36, 0x0d, 0xff, 0x38, 0x47, 0x33, 0xd4, 0x91, 0xf2, 0xd6, 0x12, 0xc8, 0x20, 0xdb, 0x67, 0xaa, 0xd1, 0xf9, 0x27, 0xc1, 0xa6, 0xad, 0x58, 0x48, 0x55, 0xaa, 0x1d, 0x40, 0xf3, 0xf4, 0xde, 0xba, 0xba, 0xd3, 0x68, 0xa4, 0x81, 0x10, 0xe0, 0xd2, 0xfa, 0xf4, 0xe8, 0xf6, 0xb8, 0xee, 0xc7, 0x1c, 0xcd, 0x22, 0x52, 0xf3, 0xde, 0x28, 0xad, 0x22, 0x07, 0xdb, 0x00, 0xd9, 0x5c, 0xf3, 0xf6, 0x36, 0x28, 0x00, 0x47, 0x15, 0x39, 0x01, 0x29, 0xe2, 0x1e, 0xfd, 0x01, 0x13, 0xbc, 0xf5, 0x1a, 0x1c, 0x26, 0x15, 0xe0, 0xbd, 0x39, 0xde, 0xcb, 0xf2, 0xe5, 0xb2, 0x37, 0x7f, 0xf0, 0xd3, 0x4b, 0xb6, 0x0b, 0xf9, 0x3a, 0x1a, 0xce, 0x4d, 0x02, 0x29, 0x2b, 0xcc, 0xf7, 0x14, 0xf2, 0x49, 0x2e, 0x2c, 0xb5, 0x1c, 0x00, 0xe2, 0x0e, 0x51, 0xe6, 0xeb, 0x39, 0xca, 0x26, 0x25, 0x14, 0x10, 0x1e, 0x4e, 0x47, 0xc5, 0x71, 0xef, 0xd4, 0x63, 0x10, 0x5e, 0xe3, 0x1d, 0xce, 0xdd, 0x4d, 0x54, 0xd4, 0xe7, 0xf4, 0x33, 0x00, 0x17, 0xb7, 0x76, 0x29, 0x50, 0x3a, 0x6f, 0xf0, 0x32, 0xf8, 0xbb, 0x4c, 0x4f, 0xe0, 0x3b, 0x19, 0xdb, 0x7f, 0xfb, 0xaa, 0x04, 0xd6, 0x2a, 0xd3, 0x75, 0xd1, 0xbf, 0x2e, 0xf8, 0x59, 0xf5, 0xe1, 0xd9, 0xf3, 0x0c, 0x25, 0x45, 0x43, 0xf6, 0x54, 0x1d, 0xf1, 0x7d, 0x33, 0x12, 0xfe, 0xff, 0xff, 0x04, 0x00, 0x00, 0x00, 0x80, 0x00, 0x00, 0x00, 0x9a, 0xfa, 0xff, 0xff, 0x0e, 0xf9, 0xff, 0xff, 0x22, 0xfd, 0xff, 0xff, 0x38, 0x0e, 0x00, 0x00, 0x81, 0xf6, 0xff, 0xff, 0x1d, 0x1a, 0x00, 0x00, 0x72, 0xfa, 0xff, 0xff, 0x32, 0xfe, 0xff, 0xff, 0xfe, 0x13, 0x00, 0x00, 0xa4, 0xfd, 0xff, 0xff, 0x1a, 0xfc, 0xff, 0xff, 0x9d, 0xf8, 0xff, 0xff, 0xa1, 0x18, 0x00, 0x00, 0x26, 0x12, 0x00, 0x00, 0x1a, 0xf9, 0xff, 0xff, 0x93, 0x03, 0x00, 0x00, 0x84, 0xff, 0xff, 0xff, 0x2a, 0x05, 0x00, 0x00, 0x0a, 0xfc, 0xff, 0xff, 0x8f, 0xf9, 0xff, 0xff, 0xfe, 0x03, 0x00, 0x00, 0xce, 0xf9, 0xff, 0xff, 0x70, 0xf6, 0xff, 0xff, 0x31, 0xfb, 0xff, 0xff, 0xc7, 0x08, 0x00, 0x00, 0xc3, 0xf7, 0xff, 0xff, 0x57, 0x12, 0x00, 0x00, 0xcd, 0x14, 0x00, 0x00, 0x9c, 0xfb, 0xff, 0xff, 0x13, 0xf8, 0xff, 0xff, 0x41, 0x0b, 0x00, 0x00, 0x4c, 0x11, 0x00, 0x00, 0x9e, 0xfe, 0xff, 0xff, 0x04, 0x00, 0x00, 0x00, 0xa0, 0x00, 0x00, 0x00, 0xdb, 0x28, 0x1a, 0xda, 0xbe, 0xe2, 0x1c, 0x3c, 0x39, 0x1e, 0xa9, 0x03, 0x24, 0xe4, 0x47, 0x33, 0xb9, 0x79, 0x2f, 0x1e, 0x18, 0xa7, 0xca, 0xdf, 0x7f, 0x27, 0xff, 0xfd, 0x22, 0x1e, 0x33, 0xea, 0xbb, 0xc6, 0x61, 0x6e, 0x90, 0x30, 0x21, 0x43, 0x5e, 0x6a, 0x83, 0xdd, 0x39, 0x1a, 0xc6, 0x44, 0xaa, 0x21, 0xb1, 0xc1, 0x68, 0x69, 0xdf, 0x05, 0x4f, 0xcd, 0x17, 0x7f, 0xa2, 0x0b, 0x3c, 0x5d, 0xd6, 0xf5, 0xb0, 0x3f, 0x21, 0xc7, 0x14, 0x73, 0x13, 0x7f, 0xc6, 0x2d, 0x7b, 0xb2, 0x50, 0x6f, 0x86, 0xe4, 0x37, 0x36, 0x39, 0x27, 0x4d, 0x33, 0x6c, 0x60, 0xbd, 0x58, 0x87, 0xdf, 0x08, 0xcf, 0x31, 0x2e, 0x00, 0x05, 0x08, 0xda, 0x07, 0x06, 0xb9, 0x18, 0xce, 0x20, 0x81, 0xdd, 0xde, 0x1e, 0xd6, 0xd6, 0x12, 0xb5, 0x0a, 0x2f, 0x1d, 0x2f, 0x02, 0x16, 0xb8, 0xc1, 0xf3, 0xd0, 0x87, 0xc2, 0x3e, 0x31, 0x11, 0x01, 0xca, 0xa4, 0x3b, 0x55, 0x3e, 0x4a, 0x21, 0x33, 0xcb, 0xf3, 0x01, 0x18, 0xde, 0xf0, 0xb3, 0x15, 0x46, 0x3d, 0x06, 0x44, 0xd9, 0x45, 0xdf, 0xd1, 0x25, 0x4f, 0x53, 0x81, 0x4a, 0xff, 0xff, 0xff, 0x04, 0x00, 0x00, 0x00, 0x14, 0x00, 0x00, 0x00, 0x48, 0xfd, 0xff, 0xff, 0x3d, 0x09, 0x00, 0x00, 0xa5, 0x02, 0x00, 0x00, 0xdd, 0xfd, 0xff, 0xff, 0xde, 0xfb, 0xff, 0xff, 0x38, 0xff, 0xff, 0xff, 0x3c, 0xff, 0xff, 0xff, 0x0f, 0x00, 0x00, 0x00, 0x4d, 0x4c, 0x49, 0x52, 0x20, 0x43, 0x6f, 0x6e, 0x76, 0x65, 0x72, 0x74, 0x65, 0x64, 0x2e, 0x00, 0x01, 0x00, 0x00, 0x00, 0x14, 0x00, 0x00, 0x00, 0x00, 0x00, 0x0e, 0x00, 0x18, 0x00, 0x14, 0x00, 0x10, 0x00, 0x0c, 0x00, 0x08, 0x00, 0x04, 0x00, 0x0e, 0x00, 0x00, 0x00, 0x14, 0x00, 0x00, 0x00, 0x1c, 0x00, 0x00, 0x00, 0x28, 0x01, 0x00, 0x00, 0x2c, 0x01, 0x00, 0x00, 0x30, 0x01, 0x00, 0x00, 0x04, 0x00, 0x00, 0x00, 0x6d, 0x61, 0x69, 0x6e, 0x00, 0x00, 0x00, 0x00, 0x04, 0x00, 0x00, 0x00, 0xd0, 0x00, 0x00, 0x00, 0x88, 0x00, 0x00, 0x00, 0x50, 0x00, 0x00, 0x00, 0x14, 0x00, 0x00, 0x00, 0x00, 0x00, 0x0e, 0x00, 0x1a, 0x00, 0x14, 0x00, 0x10, 0x00, 0x0c, 0x00, 0x0b, 0x00, 0x04, 0x00, 0x0e, 0x00, 0x00, 0x00, 0x1c, 0x00, 0x00, 0x00, 0x00, 0x00, 0x00, 0x09, 0x1c, 0x00, 0x00, 0x00, 0x20, 0x00, 0x00, 0x00, 0x01, 0x00, 0x00, 0x00, 0x00, 0x00, 0x06, 0x00, 0x08, 0x00, 0x04, 0x00, 0x06, 0x00, 0x00, 0x00, 0x00, 0x00, 0x80, 0x3f, 0x01, 0x00, 0x00, 0x00, 0x0a, 0x00, 0x00, 0x00, 0x01, 0x00, 0x00, 0x00, 0x09, 0x00, 0x00, 0x00, 0x96, 0xff, 0xff, 0xff, 0x14, 0x00, 0x00, 0x00, 0x00, 0x00, 0x00, 0x08, 0x10, 0x00, 0x00, 0x00, 0x14, 0x00, 0x00, 0x00, 0x04, 0x00, 0x04, 0x00, 0x04, 0x00, 0x00, 0x00, 0x01, 0x00, 0x00, 0x00, 0x09, 0x00, 0x00, 0x00, 0x03, 0x00, 0x00, 0x00, 0x08, 0x00, 0x00, 0x00, 0x02, 0x00, 0x00, 0x00, 0x01, 0x00, 0x00, 0x00, 0xca, 0xff, 0xff, 0xff, 0x10, 0x00, 0x00, 0x00, 0x00, 0x00, 0x00, 0x08, 0x10, 0x00, 0x00, 0x00, 0x14, 0x00, 0x00, 0x00, 0xba, 0xff, 0xff, 0xff, 0x00, 0x00, 0x00, 0x01, 0x01, 0x00, 0x00, 0x00, 0x08, 0x00, 0x00, 0x00, 0x03, 0x00, 0x00, 0x00, 0x07, 0x00, 0x00, 0x00, 0x04, 0x00, 0x00, 0x00, 0x03, 0x00, 0x00, 0x00, 0x00, 0x00, 0x0e, 0x00, 0x16, 0x00, 0x00, 0x00, 0x10, 0x00, 0x0c, 0x00, 0x0b, 0x00, 0x04, 0x00, 0x0e, 0x00, 0x00, 0x00, 0x18, 0x00, 0x00, 0x00, 0x00, 0x00, 0x00, 0x08, 0x18, 0x00, 0x00, 0x00, 0x1c, 0x00, 0x00, 0x00, 0x00, 0x00, 0x06, 0x00, 0x08, 0x00, 0x07, 0x00, 0x06, 0x00, 0x00, 0x00, 0x00, 0x00, 0x00, 0x01, 0x01, 0x00, 0x00, 0x00, 0x07, 0x00, 0x00, 0x00, 0x03, 0x00, 0x00, 0x00, 0x00, 0x00, 0x00, 0x00, 0x06, 0x00, 0x00, 0x00, 0x05, 0x00, 0x00, 0x00, 0x01, 0x00, 0x00, 0x00, 0x0a, 0x00, 0x00, 0x00, 0x01, 0x00, 0x00, 0x00, 0x00, 0x00, 0x00, 0x00, 0x0b, 0x00, 0x00, 0x00, 0xc8, 0x0e, 0x00, 0x00, 0x10, 0x0e, 0x00, 0x00, 0x54, 0x0d, 0x00, 0x00, 0x58, 0x0b, 0x00, 0x00, 0x74, 0x09, 0x00, 0x00, 0xf8, 0x05, 0x00, 0x00, 0x94, 0x02, 0x00, 0x00, 0xe0, 0x01, 0x00, 0x00, 0x24, 0x01, 0x00, 0x00, 0x80, 0x00, 0x00, 0x00, 0x04, 0x00, 0x00, 0x00, 0x7a, 0xf1, 0xff, 0xff, 0x00, 0x00, 0x00, 0x01, 0x18, 0x00, 0x00, 0x00, 0x20, 0x00, 0x00, 0x00, 0x3c, 0x00, 0x00, 0x00, 0x0b, 0x00, 0x00, 0x00, 0x00, 0x00, 0x00, 0x09, 0x50, 0x00, 0x00, 0x00, 0x02, 0x00, 0x00, 0x00, 0xff, 0xff, 0xff, 0xff, 0x05, 0x00, 0x00, 0x00, 0x64, 0xf1, 0xff, 0xff, 0x08, 0x00, 0x00, 0x00, 0x10, 0x00, 0x00, 0x00, 0x01, 0x00, 0x00, 0x00, 0x80, 0xff, 0xff, 0xff, 0xff, 0xff, 0xff, 0xff, 0x01, 0x00, 0x00, 0x00, 0x00, 0x00, 0x80, 0x3b, 0x1b, 0x00, 0x00, 0x00, 0x53, 0x74, 0x61, 0x74, 0x65, 0x66, 0x75, 0x6c, 0x50, 0x61, 0x72, 0x74, 0x69, 0x74, 0x69, 0x6f, 0x6e, 0x65, 0x64, 0x43, 0x61, 0x6c, 0x6c, 0x5f, 0x31, 0x3a, 0x30, 0x00, 0x02, 0x00, 0x00, 0x00, 0x01, 0x00, 0x00, 0x00, 0x05, 0x00, 0x00, 0x00, 0xf2, 0xf1, 0xff, 0xff, 0x00, 0x00, 0x00, 0x01, 0x18, 0x00, 0x00, 0x00, 0x20, 0x00, 0x00, 0x00, 0x40, 0x00, 0x00, 0x00, 0x0a, 0x00, 0x00, 0x00, 0x00, 0x00, 0x00, 0x09, 0x78, 0x00, 0x00, 0x00, 0x02, 0x00, 0x00, 0x00, 0xff, 0xff, 0xff, 0xff, 0x05, 0x00, 0x00, 0x00, 0xdc, 0xf1, 0xff, 0xff, 0x08, 0x00, 0x00, 0x00, 0x14, 0x00, 0x00, 0x00, 0x01, 0x00, 0x00, 0x00, 0x41, 0x00, 0x00, 0x00, 0x00, 0x00, 0x00, 0x00, 0x00, 0x00, 0x00, 0x00, 0x01, 0x00, 0x00, 0x00, 0x44, 0x54, 0xd3, 0x3d, 0x3c, 0x00, 0x00, 0x00, 0x66, 0x75, 0x6e, 0x63, 0x74, 0x69, 0x6f, 0x6e, 0x61, 0x6c, 0x5f, 0x31, 0x2f, 0x64, 0x65, 0x6e, 0x73, 0x65, 0x5f, 0x32, 0x5f, 0x31, 0x2f, 0x4d, 0x61, 0x74, 0x4d, 0x75, 0x6c, 0x3b, 0x66, 0x75, 0x6e, 0x63, 0x74, 0x69, 0x6f, 0x6e, 0x61, 0x6c, 0x5f, 0x31, 0x2f, 0x64, 0x65, 0x6e, 0x73, 0x65, 0x5f, 0x32, 0x5f, 0x31, 0x2f, 0x42, 0x69, 0x61, 0x73, 0x41, 0x64, 0x64, 0x00, 0x00, 0x00, 0x00, 0x02, 0x00, 0x00, 0x00, 0x01, 0x00, 0x00, 0x00, 0x05, 0x00, 0x00, 0x00, 0x92, 0xf2, 0xff, 0xff, 0x00, 0x00, 0x00, 0x01, 0x18, 0x00, 0x00, 0x00, 0x20, 0x00, 0x00, 0x00, 0x3c, 0x00, 0x00, 0x00, 0x09, 0x00, 0x00, 0x00, 0x00, 0x00, 0x00, 0x09, 0x90, 0x00, 0x00, 0x00, 0x02, 0x00, 0x00, 0x00, 0xff, 0xff, 0xff, 0xff, 0x20, 0x00, 0x00, 0x00, 0x7c, 0xf2, 0xff, 0xff, 0x08, 0x00, 0x00, 0x00, 0x10, 0x00, 0x00, 0x00, 0x01, 0x00, 0x00, 0x00, 0x80, 0xff, 0xff, 0xff, 0xff, 0xff, 0xff, 0xff, 0x01, 0x00, 0x00, 0x00, 0xaa, 0xac, 0xfb, 0x3c, 0x58, 0x00, 0x00, 0x00, 0x66, 0x75, 0x6e, 0x63, 0x74, 0x69, 0x6f, 0x6e, 0x61, 0x6c, 0x5f, 0x31, 0x2f, 0x64, 0x65, 0x6e, 0x73, 0x65, 0x5f, 0x31, 0x5f, 0x32, 0x2f, 0x4d, 0x61, 0x74, 0x4d, 0x75, 0x6c, 0x3b, 0x66, 0x75, 0x6e, 0x63, 0x74, 0x69, 0x6f, 0x6e, 0x61, 0x6c, 0x5f, 0x31, 0x2f, 0x64, 0x65, 0x6e, 0x73, 0x65, 0x5f, 0x31, 0x5f, 0x32, 0x2f, 0x52, 0x65, 0x6c, 0x75, 0x3b, 0x66, 0x75, 0x6e, 0x63, 0x74, 0x69, 0x6f, 0x6e, 0x61, 0x6c, 0x5f, 0x31, 0x2f, 0x64, 0x65, 0x6e, 0x73, 0x65, 0x5f, 0x31, 0x5f, 0x32, 0x2f, 0x42, 0x69, 0x61, 0x73, 0x41, 0x64, 0x64, 0x00, 0x00, 0x00, 0x00, 0x02, 0x00, 0x00, 0x00, 0x01, 0x00, 0x00, 0x00, 0x20, 0x00, 0x00, 0x00, 0x4a, 0xf3, 0xff, 0xff, 0x00, 0x00, 0x00, 0x01, 0x18, 0x00, 0x00, 0x00, 0x20, 0x00, 0x00, 0x00, 0x3c, 0x00, 0x00, 0x00, 0x08, 0x00, 0x00, 0x00, 0x00, 0x00, 0x00, 0x09, 0x88, 0x00, 0x00, 0x00, 0x02, 0x00, 0x00, 0x00, 0xff, 0xff, 0xff, 0xff, 0x40, 0x00, 0x00, 0x00, 0x34, 0xf3, 0xff, 0xff, 0x08, 0x00, 0x00, 0x00, 0x10, 0x00, 0x00, 0x00, 0x01, 0x00, 0x00, 0x00, 0x80, 0xff, 0xff, 0xff, 0xff, 0xff, 0xff, 0xff, 0x01, 0x00, 0x00, 0x00, 0x66, 0x1e, 0x96, 0x3c, 0x52, 0x00, 0x00, 0x00, 0x66, 0x75, 0x6e, 0x63, 0x74, 0x69, 0x6f, 0x6e, 0x61, 0x6c, 0x5f, 0x31, 0x2f, 0x64, 0x65, 0x6e, 0x73, 0x65, 0x5f, 0x31, 0x2f, 0x4d, 0x61, 0x74, 0x4d, 0x75, 0x6c, 0x3b, 0x66, 0x75, 0x6e, 0x63, 0x74, 0x69, 0x6f, 0x6e, 0x61, 0x6c, 0x5f, 0x31, 0x2f, 0x64, 0x65, 0x6e, 0x73, 0x65, 0x5f, 0x31, 0x2f, 0x52, 0x65, 0x6c, 0x75, 0x3b, 0x66, 0x75, 0x6e, 0x63, 0x74, 0x69, 0x6f, 0x6e, 0x61, 0x6c, 0x5f, 0x31, 0x2f, 0x64, 0x65, 0x6e, 0x73, 0x65, 0x5f, 0x31, 0x2f, 0x42, 0x69, 0x61, 0x73, 0x41, 0x64, 0x64, 0x00, 0x00, 0x02, 0x00, 0x00, 0x00, 0x01, 0x00, 0x00, 0x00, 0x40, 0x00, 0x00, 0x00, 0xae, 0xf4, 0xff, 0xff, 0x00, 0x00, 0x00, 0x01, 0x14, 0x00, 0x00, 0x00, 0x28, 0x03, 0x00, 0x00, 0x07, 0x00, 0x00, 0x00, 0x00, 0x00, 0x00, 0x09, 0x3c, 0x03, 0x00, 0x00, 0xd4, 0xf3, 0xff, 0xff, 0x08, 0x00, 0x00, 0x00, 0x0c, 0x02, 0x00, 0x00, 0x40, 0x00, 0x00, 0x00, 0x00, 0x00, 0x00, 0x00, 0x00, 0x00, 0x00, 0x00, 0x00, 0x00, 0x00, 0x00, 0x00, 0x00, 0x00, 0x00, 0x00, 0x00, 0x00, 0x00, 0x00, 0x00, 0x00, 0x00, 0x00, 0x00, 0x00, 0x00, 0x00, 0x00, 0x00, 0x00, 0x00, 0x00, 0x00, 0x00, 0x00, 0x00, 0x00, 0x00, 0x00, 0x00, 0x00, 0x00, 0x00, 0x00, 0x00, 0x00, 0x00, 0x00, 0x00, 0x00, 0x00, 0x00, 0x00, 0x00, 0x00, 0x00, 0x00, 0x00, 0x00, 0x00, 0x00, 0x00, 0x00, 0x00, 0x00, 0x00, 0x00, 0x00, 0x00, 0x00, 0x00, 0x00, 0x00, 0x00, 0x00, 0x00, 0x00, 0x00, 0x00, 0x00, 0x00, 0x00, 0x00, 0x00, 0x00, 0x00, 0x00, 0x00, 0x00, 0x00, 0x00, 0x00, 0x00, 0x00, 0x00, 0x00, 0x00, 0x00, 0x00, 0x00, 0x00, 0x00, 0x00, 0x00, 0x00, 0x00, 0x00, 0x00, 0x00, 0x00, 0x00, 0x00, 0x00, 0x00, 0x00, 0x00, 0x00, 0x00, 0x00, 0x00, 0x00, 0x00, 0x00, 0x00, 0x00, 0x00, 0x00, 0x00, 0x00, 0x00, 0x00, 0x00, 0x00, 0x00, 0x00, 0x00, 0x00, 0x00, 0x00, 0x00, 0x00, 0x00, 0x00, 0x00, 0x00, 0x00, 0x00, 0x00, 0x00, 0x00, 0x00, 0x00, 0x00, 0x00, 0x00, 0x00, 0x00, 0x00, 0x00, 0x00, 0x00, 0x00, 0x00, 0x00, 0x00, 0x00, 0x00, 0x00, 0x00, 0x00, 0x00, 0x00, 0x00, 0x00, 0x00, 0x00, 0x00, 0x00, 0x00, 0x00, 0x00, 0x00, 0x00, 0x00, 0x00, 0x00, 0x00, 0x00, 0x00, 0x00, 0x00, 0x00, 0x00, 0x00, 0x00, 0x00, 0x00, 0x00, 0x00, 0x00, 0x00, 0x00, 0x00, 0x00, 0x00, 0x00, 0x00, 0x00, 0x00, 0x00, 0x00, 0x00, 0x00, 0x00, 0x00, 0x00, 0x00, 0x00, 0x00, 0x00, 0x00, 0x00, 0x00, 0x00, 0x00, 0x00, 0x00, 0x00, 0x00, 0x00, 0x00, 0x00, 0x00, 0x00, 0x00, 0x00, 0x00, 0x00, 0x00, 0x00, 0x00, 0x00, 0x00, 0x00, 0x00, 0x00, 0x00, 0x00, 0x00, 0x00, 0x00, 0x00, 0x00, 0x00, 0x00, 0x00, 0x00, 0x00, 0x00, 0x00, 0x00, 0x00, 0x00, 0x00, 0x00, 0x00, 0x00, 0x00, 0x00, 0x00, 0x00, 0x00, 0x00, 0x00, 0x00, 0x00, 0x00, 0x00, 0x00, 0x00, 0x00, 0x00, 0x00, 0x00, 0x00, 0x00, 0x00, 0x00, 0x00, 0x00, 0x00, 0x00, 0x00, 0x00, 0x00, 0x00, 0x00, 0x00, 0x00, 0x00, 0x00, 0x00, 0x00, 0x00, 0x00, 0x00, 0x00, 0x00, 0x00, 0x00, 0x00, 0x00, 0x00, 0x00, 0x00, 0x00, 0x00, 0x00, 0x00, 0x00, 0x00, 0x00, 0x00, 0x00, 0x00, 0x00, 0x00, 0x00, 0x00, 0x00, 0x00, 0x00, 0x00, 0x00, 0x00, 0x00, 0x00, 0x00, 0x00, 0x00, 0x00, 0x00, 0x00, 0x00, 0x00, 0x00, 0x00, 0x00, 0x00, 0x00, 0x00, 0x00, 0x00, 0x00, 0x00, 0x00, 0x00, 0x00, 0x00, 0x00, 0x00, 0x00, 0x00, 0x00, 0x00, 0x00, 0x00, 0x00, 0x00, 0x00, 0x00, 0x00, 0x00, 0x00, 0x00, 0x00, 0x00, 0x00, 0x00, 0x00, 0x00, 0x00, 0x00, 0x00, 0x00, 0x00, 0x00, 0x00, 0x00, 0x00, 0x00, 0x00, 0x00, 0x00, 0x00, 0x00, 0x00, 0x00, 0x00, 0x00, 0x00, 0x00, 0x00, 0x00, 0x00, 0x00, 0x00, 0x00, 0x00, 0x00, 0x00, 0x00, 0x00, 0x00, 0x00, 0x00, 0x00, 0x00, 0x00, 0x00, 0x00, 0x00, 0x00, 0x00, 0x00, 0x00, 0x00, 0x00, 0x00, 0x00, 0x00, 0x00, 0x00, 0x00, 0x00, 0x00, 0x00, 0x00, 0x00, 0x00, 0x00, 0x00, 0x00, 0x00, 0x00, 0x00, 0x00, 0x00, 0x00, 0x00, 0x00, 0x00, 0x00, 0x00, 0x00, 0x00, 0x00, 0x00, 0x00, 0x00, 0x00, 0x00, 0x00, 0x00, 0x00, 0x00, 0x00, 0x00, 0x00, 0x00, 0x00, 0x00, 0x00, 0x00, 0x00, 0x00, 0x00, 0x00, 0x00, 0x00, 0x00, 0x00, 0x00, 0x00, 0x00, 0x00, 0x00, 0x00, 0x00, 0x00, 0x00, 0x00, 0x00, 0x00, 0x00, 0x00, 0x00, 0x00, 0x00, 0x00, 0x00, 0x00, 0x00, 0x00, 0x00, 0x00, 0x00, 0x00, 0x00, 0x00, 0x00, 0x00, 0x00, 0x00, 0x40, 0x00, 0x00, 0x00, 0x49, 0xa7, 0x60, 0x3b, 0x9d, 0xcb, 0x36, 0x3b, 0xd5, 0x70, 0xef, 0x3a, 0x7b, 0x07, 0x0a, 0x3b, 0x72, 0xfb, 0xfb, 0x3a, 0xca, 0x16, 0x4e, 0x3b, 0x25, 0x4a, 0x03, 0x3b, 0x46, 0x3b, 0x16, 0x3b, 0xec, 0x76, 0x16, 0x3b, 0xbf, 0x3d, 0x32, 0x3b, 0x8c, 0xbe, 0xeb, 0x3a, 0xf8, 0xdc, 0xf4, 0x3a, 0x99, 0x6c, 0x8c, 0x3b, 0xb5, 0x34, 0x26, 0x3b, 0xfd, 0xf9, 0x15, 0x3b, 0x79, 0xcd, 0xdb, 0x3a, 0x0d, 0x3c, 0x04, 0x3b, 0xbc, 0x8b, 0x16, 0x3b, 0x44, 0xe1, 0x80, 0x3b, 0xb6, 0x9d, 0x07, 0x3b, 0x15, 0x8c, 0x77, 0x3b, 0x78, 0x22, 0x14, 0x3b, 0xb1, 0x7d, 0x01, 0x3b, 0xa8, 0x47, 0x0b, 0x3b, 0x55, 0x30, 0x37, 0x3b, 0x83, 0xbb, 0xfb, 0x3a, 0xf3, 0xa8, 0x60, 0x3b, 0xcc, 0x5b, 0x40, 0x3b, 0xd3, 0x66, 0x48, 0x3b, 0xa4, 0x59, 0x55, 0x3b, 0x4a, 0xeb, 0xf9, 0x3a, 0x71, 0x52, 0x32, 0x3b, 0xc7, 0xfa, 0x21, 0x3b, 0x16, 0xbd, 0x02, 0x3b, 0x0e, 0x3e, 0x0a, 0x3b, 0x95, 0x16, 0x44, 0x3b, 0x0a, 0x7a, 0x01, 0x3b, 0x90, 0x7b, 0x39, 0x3b, 0xdd, 0x24, 0x16, 0x3b, 0x76, 0x6f, 0x90, 0x3b, 0x72, 0x7c, 0x17, 0x3b, 0x44, 0x9f, 0xfb, 0x3a, 0x2d, 0xfa, 0x14, 0x3b, 0x3a, 0xe6, 0x1a, 0x3b, 0x41, 0xf8, 0x14, 0x3b, 0x99, 0xd3, 0x14, 0x3b, 0x04, 0x60, 0x03, 0x3b, 0x81, 0x4b, 0x2d, 0x3b, 0x2a, 0x0c, 0x43, 0x3b, 0x03, 0xfd, 0x3e, 0x3b, 0xdf, 0x49, 0x40, 0x3b, 0x70, 0x44, 0x34, 0x3b, 0x37, 0xf7, 0x04, 0x3b, 0x21, 0xeb, 0x23, 0x3b, 0x51, 0xd2, 0x00, 0x3b, 0x43, 0x05, 0x3c, 0x3b, 0x9d, 0x62, 0x20, 0x3b, 0xb2, 0x9e, 0x16, 0x3b, 0x26, 0x7a, 0x3a, 0x3b, 0xa9, 0xb1, 0x62, 0x3b, 0x15, 0x5a, 0x32, 0x3b, 0xa2, 0xd4, 0x2e, 0x3b, 0x16, 0xf7, 0x41, 0x3b, 0xb2, 0xc7, 0x0d, 0x3b, 0x1b, 0x00, 0x00, 0x00, 0x66, 0x75, 0x6e, 0x63, 0x74, 0x69, 0x6f, 0x6e, 0x61, 0x6c, 0x5f, 0x31, 0x2f, 0x64, 0x65, 0x6e, 0x73, 0x65, 0x5f, 0x31, 0x2f, 0x4d, 0x61, 0x74, 0x4d, 0x75, 0x6c, 0x00, 0x02, 0x00, 0x00, 0x00, 0x40, 0x00, 0x00, 0x00, 0x3a, 0x00, 0x00, 0x00, 0x0e, 0xf8, 0xff, 0xff, 0x00, 0x00, 0x00, 0x01, 0x14, 0x00, 0x00, 0x00, 0x28, 0x03, 0x00, 0x00, 0x06, 0x00, 0x00, 0x00, 0x00, 0x00, 0x00, 0x02, 0x58, 0x03, 0x00, 0x00, 0x34, 0xf7, 0xff, 0xff, 0x08, 0x00, 0x00, 0x00, 0x0c, 0x02, 0x00, 0x00, 0x40, 0x00, 0x00, 0x00, 0x00, 0x00, 0x00, 0x00, 0x00, 0x00, 0x00, 0x00, 0x00, 0x00, 0x00, 0x00, 0x00, 0x00, 0x00, 0x00, 0x00, 0x00, 0x00, 0x00, 0x00, 0x00, 0x00, 0x00, 0x00, 0x00, 0x00, 0x00, 0x00, 0x00, 0x00, 0x00, 0x00, 0x00, 0x00, 0x00, 0x00, 0x00, 0x00, 0x00, 0x00, 0x00, 0x00, 0x00, 0x00, 0x00, 0x00, 0x00, 0x00, 0x00, 0x00, 0x00, 0x00, 0x00, 0x00, 0x00, 0x00, 0x00, 0x00, 0x00, 0x00, 0x00, 0x00, 0x00, 0x00, 0x00, 0x00, 0x00, 0x00, 0x00, 0x00, 0x00, 0x00, 0x00, 0x00, 0x00, 0x00, 0x00, 0x00, 0x00, 0x00, 0x00, 0x00, 0x00, 0x00, 0x00, 0x00, 0x00, 0x00, 0x00, 0x00, 0x00, 0x00, 0x00, 0x00, 0x00, 0x00, 0x00, 0x00, 0x00, 0x00, 0x00, 0x00, 0x00, 0x00, 0x00, 0x00, 0x00, 0x00, 0x00, 0x00, 0x00, 0x00, 0x00, 0x00, 0x00, 0x00, 0x00, 0x00, 0x00, 0x00, 0x00, 0x00, 0x00, 0x00, 0x00, 0x00, 0x00, 0x00, 0x00, 0x00, 0x00, 0x00, 0x00, 0x00, 0x00, 0x00, 0x00, 0x00, 0x00, 0x00, 0x00, 0x00, 0x00, 0x00, 0x00, 0x00, 0x00, 0x00, 0x00, 0x00, 0x00, 0x00, 0x00, 0x00, 0x00, 0x00, 0x00, 0x00, 0x00, 0x00, 0x00, 0x00, 0x00, 0x00, 0x00, 0x00, 0x00, 0x00, 0x00, 0x00, 0x00, 0x00, 0x00, 0x00, 0x00, 0x00, 0x00, 0x00, 0x00, 0x00, 0x00, 0x00, 0x00, 0x00, 0x00, 0x00, 0x00, 0x00, 0x00, 0x00, 0x00, 0x00, 0x00, 0x00, 0x00, 0x00, 0x00, 0x00, 0x00, 0x00, 0x00, 0x00, 0x00, 0x00, 0x00, 0x00, 0x00, 0x00, 0x00, 0x00, 0x00, 0x00, 0x00, 0x00, 0x00, 0x00, 0x00, 0x00, 0x00, 0x00, 0x00, 0x00, 0x00, 0x00, 0x00, 0x00, 0x00, 0x00, 0x00, 0x00, 0x00, 0x00, 0x00, 0x00, 0x00, 0x00, 0x00, 0x00, 0x00, 0x00, 0x00, 0x00, 0x00, 0x00, 0x00, 0x00, 0x00, 0x00, 0x00, 0x00, 0x00, 0x00, 0x00, 0x00, 0x00, 0x00, 0x00, 0x00, 0x00, 0x00, 0x00, 0x00, 0x00, 0x00, 0x00, 0x00, 0x00, 0x00, 0x00, 0x00, 0x00, 0x00, 0x00, 0x00, 0x00, 0x00, 0x00, 0x00, 0x00, 0x00, 0x00, 0x00, 0x00, 0x00, 0x00, 0x00, 0x00, 0x00, 0x00, 0x00, 0x00, 0x00, 0x00, 0x00, 0x00, 0x00, 0x00, 0x00, 0x00, 0x00, 0x00, 0x00, 0x00, 0x00, 0x00, 0x00, 0x00, 0x00, 0x00, 0x00, 0x00, 0x00, 0x00, 0x00, 0x00, 0x00, 0x00, 0x00, 0x00, 0x00, 0x00, 0x00, 0x00, 0x00, 0x00, 0x00, 0x00, 0x00, 0x00, 0x00, 0x00, 0x00, 0x00, 0x00, 0x00, 0x00, 0x00, 0x00, 0x00, 0x00, 0x00, 0x00, 0x00, 0x00, 0x00, 0x00, 0x00, 0x00, 0x00, 0x00, 0x00, 0x00, 0x00, 0x00, 0x00, 0x00, 0x00, 0x00, 0x00, 0x00, 0x00, 0x00, 0x00, 0x00, 0x00, 0x00, 0x00, 0x00, 0x00, 0x00, 0x00, 0x00, 0x00, 0x00, 0x00, 0x00, 0x00, 0x00, 0x00, 0x00, 0x00, 0x00, 0x00, 0x00, 0x00, 0x00, 0x00, 0x00, 0x00, 0x00, 0x00, 0x00, 0x00, 0x00, 0x00, 0x00, 0x00, 0x00, 0x00, 0x00, 0x00, 0x00, 0x00, 0x00, 0x00, 0x00, 0x00, 0x00, 0x00, 0x00, 0x00, 0x00, 0x00, 0x00, 0x00, 0x00, 0x00, 0x00, 0x00, 0x00, 0x00, 0x00, 0x00, 0x00, 0x00, 0x00, 0x00, 0x00, 0x00, 0x00, 0x00, 0x00, 0x00, 0x00, 0x00, 0x00, 0x00, 0x00, 0x00, 0x00, 0x00, 0x00, 0x00, 0x00, 0x00, 0x00, 0x00, 0x00, 0x00, 0x00, 0x00, 0x00, 0x00, 0x00, 0x00, 0x00, 0x00, 0x00, 0x00, 0x00, 0x00, 0x00, 0x00, 0x00, 0x00, 0x00, 0x00, 0x00, 0x00, 0x00, 0x00, 0x00, 0x00, 0x00, 0x00, 0x00, 0x00, 0x00, 0x00, 0x00, 0x00, 0x00, 0x00, 0x00, 0x00, 0x00, 0x00, 0x00, 0x00, 0x00, 0x00, 0x00, 0x00, 0x00, 0x00, 0x00, 0x00, 0x00, 0x00, 0x00, 0x00, 0x00, 0x00, 0x00, 0x00, 0x00, 0x00, 0x00, 0x00, 0x00, 0x00, 0x00, 0x00, 0x00, 0x00, 0x40, 0x00, 0x00, 0x00, 0xe9, 0x91, 0x15, 0x39, 0x3f, 0x67, 0xf3, 0x38, 0x42, 0x6a, 0x9f, 0x38, 0x5f, 0xcb, 0xb7, 0x38, 0xd2, 0xc3, 0xa7, 0x38, 0xcb, 0x35, 0x09, 0x39, 0xfb, 0xd1, 0xae, 0x38, 0xe5, 0x0a, 0xc8, 0x38, 0x52, 0x5a, 0xc8, 0x38, 0xd2, 0x56, 0xed, 0x38, 0x3d, 0xf4, 0x9c, 0x38, 0x74, 0x06, 0xa3, 0x38, 0xc6, 0xfb, 0x3a, 0x39, 0x3a, 0x50, 0xdd, 0x38, 0xf7, 0xb3, 0xc7, 0x38, 0x23, 0x57, 0x92, 0x38, 0x18, 0x14, 0xb0, 0x38, 0x09, 0x76, 0xc8, 0x38, 0x91, 0x9c, 0x2b, 0x39, 0xc6, 0x94, 0xb4, 0x38, 0xeb, 0xcf, 0x24, 0x39, 0x1b, 0x40, 0xc5, 0x38, 0xdc, 0x6c, 0xac, 0x38, 0xb5, 0x75, 0xb9, 0x38, 0x5c, 0xed, 0xf3, 0x38, 0x41, 0x99, 0xa7, 0x38, 0x05, 0x93, 0x15, 0x39, 0x94, 0x11, 0x00, 0x39, 0x70, 0x6c, 0x05, 0x39, 0x61, 0x0b, 0x0e, 0x39, 0x2f, 0x64, 0xa6, 0x38, 0x61, 0x72, 0xed, 0x38, 0x92, 0xaf, 0xd7, 0x38, 0x27, 0x16, 0xae, 0x38, 0x0a, 0x14, 0xb8, 0x38, 0x41, 0x8d, 0x02, 0x39, 0xff, 0x67, 0xac, 0x38, 0x4b, 0xfb, 0xf6, 0x38, 0x0e, 0xed, 0xc7, 0x38, 0x1b, 0x53, 0x40, 0x39, 0x8e, 0xb6, 0xc9, 0x38, 0x73, 0x86, 0xa7, 0x38, 0x55, 0x5f, 0xc6, 0x38, 0x0c, 0x42, 0xce, 0x38, 0xc6, 0x5c, 0xc6, 0x38, 0xf7, 0x2b, 0xc6, 0x38, 0x1a, 0xef, 0xae, 0x38, 0xbe, 0xc0, 0xe6, 0x38, 0xe1, 0xdb, 0x01, 0x39, 0x10, 0x50, 0xfe, 0x38, 0xa4, 0x05, 0x00, 0x39, 0x7e, 0x09, 0xf0, 0x38, 0x50, 0x0d, 0xb1, 0x38, 0x7f, 0x44, 0xda, 0x38, 0xaa, 0x88, 0xab, 0x38, 0x68, 0x5c, 0xfa, 0x38, 0x14, 0x90, 0xd5, 0x38, 0x48, 0x8f, 0xc8, 0x38, 0x4a, 0x4e, 0xf8, 0x38, 0xb3, 0xed, 0x16, 0x39, 0x8d, 0x7c, 0xed, 0x38, 0x38, 0xcc, 0xe8, 0x38, 0x68, 0x23, 0x01, 0x39, 0xf5, 0xc9, 0xbc, 0x38, 0x36, 0x00, 0x00, 0x00, 0x66, 0x75, 0x6e, 0x63, 0x74, 0x69, 0x6f, 0x6e, 0x61, 0x6c, 0x5f, 0x31, 0x2f, 0x64, 0x65, 0x6e, 0x73, 0x65, 0x5f, 0x31, 0x2f, 0x52, 0x65, 0x6c, 0x75, 0x3b, 0x66, 0x75, 0x6e, 0x63, 0x74, 0x69, 0x6f, 0x6e, 0x61, 0x6c, 0x5f, 0x31, 0x2f, 0x64, 0x65, 0x6e, 0x73, 0x65, 0x5f, 0x31, 0x2f, 0x42, 0x69, 0x61, 0x73, 0x41, 0x64, 0x64, 0x00, 0x00, 0x01, 0x00, 0x00, 0x00, 0x40, 0x00, 0x00, 0x00, 0x86, 0xfb, 0xff, 0xff, 0x00, 0x00, 0x00, 0x01, 0x14, 0x00, 0x00, 0x00, 0xa4, 0x01, 0x00, 0x00, 0x05, 0x00, 0x00, 0x00, 0x00, 0x00, 0x00, 0x09, 0xbc, 0x01, 0x00, 0x00, 0xac, 0xfa, 0xff, 0xff, 0x08, 0x00, 0x00, 0x00, 0x08, 0x01, 0x00, 0x00, 0x20, 0x00, 0x00, 0x00, 0x00, 0x00, 0x00, 0x00, 0x00, 0x00, 0x00, 0x00, 0x00, 0x00, 0x00, 0x00, 0x00, 0x00, 0x00, 0x00, 0x00, 0x00, 0x00, 0x00, 0x00, 0x00, 0x00, 0x00, 0x00, 0x00, 0x00, 0x00, 0x00, 0x00, 0x00, 0x00, 0x00, 0x00, 0x00, 0x00, 0x00, 0x00, 0x00, 0x00, 0x00, 0x00, 0x00, 0x00, 0x00, 0x00, 0x00, 0x00, 0x00, 0x00, 0x00, 0x00, 0x00, 0x00, 0x00, 0x00, 0x00, 0x00, 0x00, 0x00, 0x00, 0x00, 0x00, 0x00, 0x00, 0x00, 0x00, 0x00, 0x00, 0x00, 0x00, 0x00, 0x00, 0x00, 0x00, 0x00, 0x00, 0x00, 0x00, 0x00, 0x00, 0x00, 0x00, 0x00, 0x00, 0x00, 0x00, 0x00, 0x00, 0x00, 0x00, 0x00, 0x00, 0x00, 0x00, 0x00, 0x00, 0x00, 0x00, 0x00, 0x00, 0x00, 0x00, 0x00, 0x00, 0x00, 0x00, 0x00, 0x00, 0x00, 0x00, 0x00, 0x00, 0x00, 0x00, 0x00, 0x00, 0x00, 0x00, 0x00, 0x00, 0x00, 0x00, 0x00, 0x00, 0x00, 0x00, 0x00, 0x00, 0x00, 0x00, 0x00, 0x00, 0x00, 0x00, 0x00, 0x00, 0x00, 0x00, 0x00, 0x00, 0x00, 0x00, 0x00, 0x00, 0x00, 0x00, 0x00, 0x00, 0x00, 0x00, 0x00, 0x00, 0x00, 0x00, 0x00, 0x00, 0x00, 0x00, 0x00, 0x00, 0x00, 0x00, 0x00, 0x00, 0x00, 0x00, 0x00, 0x00, 0x00, 0x00, 0x00, 0x00, 0x00, 0x00, 0x00, 0x00, 0x00, 0x00, 0x00, 0x00, 0x00, 0x00, 0x00, 0x00, 0x00, 0x00, 0x00, 0x00, 0x00, 0x00, 0x00, 0x00, 0x00, 0x00, 0x00, 0x00, 0x00, 0x00, 0x00, 0x00, 0x00, 0x00, 0x00, 0x00, 0x00, 0x00, 0x00, 0x00, 0x00, 0x00, 0x00, 0x00, 0x00, 0x00, 0x00, 0x00, 0x00, 0x00, 0x00, 0x00, 0x00, 0x00, 0x00, 0x00, 0x00, 0x00, 0x00, 0x00, 0x00, 0x00, 0x00, 0x00, 0x00, 0x00, 0x00, 0x00, 0x00, 0x00, 0x00, 0x00, 0x00, 0x00, 0x00, 0x00, 0x00, 0x00, 0x00, 0x00, 0x00, 0x00, 0x00, 0x00, 0x00, 0x00, 0x00, 0x20, 0x00, 0x00, 0x00, 0x3f, 0x8a, 0x18, 0x3b, 0x70, 0x39, 0x14, 0x3b, 0x72, 0xa3, 0x10, 0x3b, 0x1c, 0x49, 0x0e, 0x3b, 0x97, 0x17, 0x08, 0x3b, 0xc4, 0x62, 0x0b, 0x3b, 0x1c, 0xac, 0x1d, 0x3b, 0x2f, 0x82, 0x2f, 0x3b, 0xd2, 0x6e, 0x29, 0x3b, 0x7e, 0x8d, 0x2d, 0x3b, 0xe3, 0x7d, 0x16, 0x3b, 0x96, 0x65, 0x17, 0x3b, 0x0c, 0x4c, 0x44, 0x3b, 0x71, 0x19, 0x25, 0x3b, 0x5e, 0x36, 0x10, 0x3b, 0xbc, 0x8e, 0x27, 0x3b, 0xb4, 0xed, 0x2d, 0x3b, 0x33, 0x2c, 0x22, 0x3b, 0x76, 0x8c, 0x06, 0x3b, 0x64, 0xe6, 0x2f, 0x3b, 0x54, 0x85, 0x18, 0x3b, 0x5f, 0xa1, 0x14, 0x3b, 0x43, 0xd9, 0x22, 0x3b, 0x23, 0xc0, 0x13, 0x3b, 0x3b, 0x8c, 0x62, 0x3b, 0x0f, 0x36, 0x0b, 0x3b, 0x74, 0x19, 0x2b, 0x3b, 0x41, 0x92, 0x28, 0x3b, 0xea, 0x6a, 0x13, 0x3b, 0x17, 0x50, 0x15, 0x3b, 0xb6, 0xf8, 0x3a, 0x3b, 0xa2, 0x73, 0x22, 0x3b, 0x1d, 0x00, 0x00, 0x00, 0x66, 0x75, 0x6e, 0x63, 0x74, 0x69, 0x6f, 0x6e, 0x61, 0x6c, 0x5f, 0x31, 0x2f, 0x64, 0x65, 0x6e, 0x73, 0x65, 0x5f, 0x31, 0x5f, 0x32, 0x2f, 0x4d, 0x61, 0x74, 0x4d, 0x75, 0x6c, 0x00, 0x00, 0x00, 0x02, 0x00, 0x00, 0x00, 0x20, 0x00, 0x00, 0x00, 0x40, 0x00, 0x00, 0x00, 0x66, 0xfd, 0xff, 0xff, 0x00, 0x00, 0x00, 0x01, 0x14, 0x00, 0x00, 0x00, 0xa4, 0x01, 0x00, 0x00, 0x04, 0x00, 0x00, 0x00, 0x00, 0x00, 0x00, 0x02, 0xd8, 0x01, 0x00, 0x00, 0x8c, 0xfc, 0xff, 0xff, 0x08, 0x00, 0x00, 0x00, 0x08, 0x01, 0x00, 0x00, 0x20, 0x00, 0x00, 0x00, 0x00, 0x00, 0x00, 0x00, 0x00, 0x00, 0x00, 0x00, 0x00, 0x00, 0x00, 0x00, 0x00, 0x00, 0x00, 0x00, 0x00, 0x00, 0x00, 0x00, 0x00, 0x00, 0x00, 0x00, 0x00, 0x00, 0x00, 0x00, 0x00, 0x00, 0x00, 0x00, 0x00, 0x00, 0x00, 0x00, 0x00, 0x00, 0x00, 0x00, 0x00, 0x00, 0x00, 0x00, 0x00, 0x00, 0x00, 0x00, 0x00, 0x00, 0x00, 0x00, 0x00, 0x00, 0x00, 0x00, 0x00, 0x00, 0x00, 0x00, 0x00, 0x00, 0x00, 0x00, 0x00, 0x00, 0x00, 0x00, 0x00, 0x00, 0x00, 0x00, 0x00, 0x00, 0x00, 0x00, 0x00, 0x00, 0x00, 0x00, 0x00, 0x00, 0x00, 0x00, 0x00, 0x00, 0x00, 0x00, 0x00, 0x00, 0x00, 0x00, 0x00, 0x00, 0x00, 0x00, 0x00, 0x00, 0x00, 0x00, 0x00, 0x00, 0x00, 0x00, 0x00, 0x00, 0x00, 0x00, 0x00, 0x00, 0x00, 0x00, 0x00, 0x00, 0x00, 0x00, 0x00, 0x00, 0x00, 0x00, 0x00, 0x00, 0x00, 0x00, 0x00, 0x00, 0x00, 0x00, 0x00, 0x00, 0x00, 0x00, 0x00, 0x00, 0x00, 0x00, 0x00, 0x00, 0x00, 0x00, 0x00, 0x00, 0x00, 0x00, 0x00, 0x00, 0x00, 0x00, 0x00, 0x00, 0x00, 0x00, 0x00, 0x00, 0x00, 0x00, 0x00, 0x00, 0x00, 0x00, 0x00, 0x00, 0x00, 0x00, 0x00, 0x00, 0x00, 0x00, 0x00, 0x00, 0x00, 0x00, 0x00, 0x00, 0x00, 0x00, 0x00, 0x00, 0x00, 0x00, 0x00, 0x00, 0x00, 0x00, 0x00, 0x00, 0x00, 0x00, 0x00, 0x00, 0x00, 0x00, 0x00, 0x00, 0x00, 0x00, 0x00, 0x00, 0x00, 0x00, 0x00, 0x00, 0x00, 0x00, 0x00, 0x00, 0x00, 0x00, 0x00, 0x00, 0x00, 0x00, 0x00, 0x00, 0x00, 0x00, 0x00, 0x00, 0x00, 0x00, 0x00, 0x00, 0x00, 0x00, 0x00, 0x00, 0x00, 0x00, 0x00, 0x00, 0x00, 0x00, 0x00, 0x00, 0x00, 0x00, 0x00, 0x00, 0x00, 0x00, 0x00, 0x00, 0x00, 0x00, 0x00, 0x00, 0x00, 0x00, 0x00, 0x00, 0x00, 0x00, 0x00, 0x00, 0x00, 0x00, 0x20, 0x00, 0x00, 0x00, 0x3c, 0xe6, 0x32, 0x38, 0x83, 0xd6, 0x2d, 0x38, 0xe3, 0xa1, 0x29, 0x38, 0x77, 0xdf, 0x26, 0x38, 0xf7, 0x9b, 0x1f, 0x38, 0xd8, 0x78, 0x23, 0x38, 0x23, 0xeb, 0x38, 0x38, 0x3d, 0xd6, 0x4d, 0x38, 0x1b, 0xb6, 0x46, 0x38, 0x07, 0x8b, 0x4b, 0x38, 0x43, 0x7f, 0x30, 0x38, 0x00, 0x8f, 0x31, 0x38, 0xbc, 0x37, 0x66, 0x38, 0x06, 0xa1, 0x41, 0x38, 0xf6, 0x21, 0x29, 0x38, 0x0f, 0x83, 0x44, 0x38, 0xdd, 0xfb, 0x4b, 0x38, 0x4f, 0x32, 0x3e, 0x38, 0x8e, 0xcc, 0x1d, 0x38, 0xc3, 0x4b, 0x4e, 0x38, 0x77, 0xe0, 0x32, 0x38, 0x68, 0x50, 0x2e, 0x38, 0x47, 0xfd, 0x3e, 0x38, 0x40, 0x48, 0x2d, 0x38, 0x11, 0xd9, 0x84, 0x38, 0x69, 0x44, 0x23, 0x38, 0x76, 0xaa, 0x48, 0x38, 0x6d, 0xb3, 0x45, 0x38, 0x4d, 0xe4, 0x2c, 0x38, 0x51, 0x1d, 0x2f, 0x38, 0xdd, 0x47, 0x5b, 0x38, 0x16, 0x86, 0x3e, 0x38, 0x3a, 0x00, 0x00, 0x00, 0x66, 0x75, 0x6e, 0x63, 0x74, 0x69, 0x6f, 0x6e, 0x61, 0x6c, 0x5f, 0x31, 0x2f, 0x64, 0x65, 0x6e, 0x73, 0x65, 0x5f, 0x31, 0x5f, 0x32, 0x2f, 0x52, 0x65, 0x6c, 0x75, 0x3b, 0x66, 0x75, 0x6e, 0x63, 0x74, 0x69, 0x6f, 0x6e, 0x61, 0x6c, 0x5f, 0x31, 0x2f, 0x64, 0x65, 0x6e, 0x73, 0x65, 0x5f, 0x31, 0x5f, 0x32, 0x2f, 0x42, 0x69, 0x61, 0x73, 0x41, 0x64, 0x64, 0x00, 0x00, 0x01, 0x00, 0x00, 0x00, 0x20, 0x00, 0x00, 0x00, 0x5e, 0xff, 0xff, 0xff, 0x00, 0x00, 0x00, 0x01, 0x14, 0x00, 0x00, 0x00, 0x64, 0x00, 0x00, 0x00, 0x03, 0x00, 0x00, 0x00, 0x00, 0x00, 0x00, 0x09, 0x7c, 0x00, 0x00, 0x00, 0x84, 0xfe, 0xff, 0xff, 0x08, 0x00, 0x00, 0x00, 0x34, 0x00, 0x00, 0x00, 0x05, 0x00, 0x00, 0x00, 0x00, 0x00, 0x00, 0x00, 0x00, 0x00, 0x00, 0x00, 0x00, 0x00, 0x00, 0x00, 0x00, 0x00, 0x00, 0x00, 0x00, 0x00, 0x00, 0x00, 0x00, 0x00, 0x00, 0x00, 0x00, 0x00, 0x00, 0x00, 0x00, 0x00, 0x00, 0x00, 0x00, 0x00, 0x00, 0x00, 0x00, 0x00, 0x00, 0x00, 0x00, 0x00, 0x00, 0x00, 0x05, 0x00, 0x00, 0x00, 0x4d, 0x48, 0x4b, 0x3b, 0x55, 0x44, 0x3c, 0x3b, 0xe5, 0xa7, 0x32, 0x3b, 0xfa, 0x94, 0xf6, 0x3b, 0xe0, 0xea, 0x92, 0x3b, 0x1d, 0x00, 0x00, 0x00, 0x66, 0x75, 0x6e, 0x63, 0x74, 0x69, 0x6f, 0x6e, 0x61, 0x6c, 0x5f, 0x31, 0x2f, 0x64, 0x65, 0x6e, 0x73, 0x65, 0x5f, 0x32, 0x5f, 0x31, 0x2f, 0x4d, 0x61, 0x74, 0x4d, 0x75, 0x6c, 0x00, 0x00, 0x00, 0x02, 0x00, 0x00, 0x00, 0x05, 0x00, 0x00, 0x00, 0x20, 0x00, 0x00, 0x00, 0x00, 0x00, 0x16, 0x00, 0x1c, 0x00, 0x18, 0x00, 0x17, 0x00, 0x10, 0x00, 0x0c, 0x00, 0x08, 0x00, 0x00, 0x00, 0x00, 0x00, 0x00, 0x00, 0x07, 0x00, 0x16, 0x00, 0x00, 0x00, 0x00, 0x00, 0x00, 0x01, 0x14, 0x00, 0x00, 0x00, 0x64, 0x00, 0x00, 0x00, 0x02, 0x00, 0x00, 0x00, 0x00, 0x00, 0x00, 0x02, 0x7c, 0x00, 0x00, 0x00, 0x3c, 0xff, 0xff, 0xff, 0x08, 0x00, 0x00, 0x00, 0x34, 0x00, 0x00, 0x00, 0x05, 0x00, 0x00, 0x00, 0x00, 0x00, 0x00, 0x00, 0x00, 0x00, 0x00, 0x00, 0x00, 0x00, 0x00, 0x00, 0x00, 0x00, 0x00, 0x00, 0x00, 0x00, 0x00, 0x00, 0x00, 0x00, 0x00, 0x00, 0x00, 0x00, 0x00, 0x00, 0x00, 0x00, 0x00, 0x00, 0x00, 0x00, 0x00, 0x00, 0x00, 0x00, 0x00, 0x00, 0x00, 0x00, 0x00, 0x00, 0x05, 0x00, 0x00, 0x00, 0xff, 0xd8, 0xc7, 0x38, 0xfa, 0x15, 0xb9, 0x38, 0x1d, 0xa3, 0xaf, 0x38, 0x61, 0x6a, 0x72, 0x39, 0x61, 0x6f, 0x10, 0x39, 0x1e, 0x00, 0x00, 0x00, 0x66, 0x75, 0x6e, 0x63, 0x74, 0x69, 0x6f, 0x6e, 0x61, 0x6c, 0x5f, 0x31, 0x2f, 0x64, 0x65, 0x6e, 0x73, 0x65, 0x5f, 0x32, 0x5f, 0x31, 0x2f, 0x42, 0x69, 0x61, 0x73, 0x41, 0x64, 0x64, 0x00, 0x00, 0x01, 0x00, 0x00, 0x00, 0x05, 0x00, 0x00, 0x00, 0x00, 0x00, 0x16, 0x00, 0x20, 0x00, 0x1c, 0x00, 0x1b, 0x00, 0x14, 0x00, 0x10, 0x00, 0x0c, 0x00, 0x00, 0x00, 0x00, 0x00, 0x08, 0x00, 0x07, 0x00, 0x16, 0x00, 0x00, 0x00, 0x00, 0x00, 0x00, 0x01, 0x18, 0x00, 0x00, 0x00, 0x2c, 0x00, 0x00, 0x00, 0x48, 0x00, 0x00, 0x00, 0x01, 0x00, 0x00, 0x00, 0x00, 0x00, 0x00, 0x09, 0x60, 0x00, 0x00, 0x00, 0x02, 0x00, 0x00, 0x00, 0xff, 0xff, 0xff, 0xff, 0x3a, 0x00, 0x00, 0x00, 0x0c, 0x00, 0x0c, 0x00, 0x00, 0x00, 0x00, 0x00, 0x08, 0x00, 0x04, 0x00, 0x0c, 0x00, 0x00, 0x00, 0x08, 0x00, 0x00, 0x00, 0x10, 0x00, 0x00, 0x00, 0x01, 0x00, 0x00, 0x00, 0x09, 0x00, 0x00, 0x00, 0x00, 0x00, 0x00, 0x00, 0x01, 0x00, 0x00, 0x00, 0x9d, 0x70, 0x2a, 0x3d, 0x1e, 0x00, 0x00, 0x00, 0x73, 0x65, 0x72, 0x76, 0x69, 0x6e, 0x67, 0x5f, 0x64, 0x65, 0x66, 0x61, 0x75, 0x6c, 0x74, 0x5f, 0x6b, 0x65, 0x72, 0x61, 0x73, 0x5f, 0x74, 0x65, 0x6e, 0x73, 0x6f, 0x72, 0x3a, 0x30, 0x00, 0x00, 0x02, 0x00, 0x00, 0x00, 0x01, 0x00, 0x00, 0x00, 0x3a, 0x00, 0x00, 0x00, 0x02, 0x00, 0x00, 0x00, 0x24, 0x00, 0x00, 0x00, 0x04, 0x00, 0x00, 0x00, 0xf0, 0xff, 0xff, 0xff, 0x19, 0x00, 0x00, 0x00, 0x02, 0x00, 0x00, 0x00, 0x00, 0x00, 0x00, 0x19, 0x0c, 0x00, 0x10, 0x00, 0x0f, 0x00, 0x00, 0x00, 0x08, 0x00, 0x04, 0x00, 0x0c, 0x00, 0x00, 0x00, 0x09, 0x00, 0x00, 0x00, 0x04, 0x00, 0x00, 0x00, 0x00, 0x00, 0x00, 0x09
};
